
/**
  ******************************************************************************
  * @file    network_data.c
  * @author  AST Embedded Analytics Research Platform
  * @date    Thu Jan  6 13:52:41 2022
  * @brief   AI Tool Automatic Code Generator for Embedded NN computing
  ******************************************************************************
  * @attention
  *
  * Copyright (c) 2021 STMicroelectronics.
  * All rights reserved.
  *
  * This software is licensed under terms that can be found in the LICENSE file
  * in the root directory of this software component.
  * If no LICENSE file comes with this software, it is provided AS-IS.
  ******************************************************************************
  */
#include "network_data.h"
#include "ai_platform_interface.h"

AI_API_DECLARE_BEGIN

AI_ALIGNED(32)
const ai_u64 s_network_network_weights_array_u64[ 27398 ] = {
  0x83882c4a866f6a84U, 0x9ea257938f7f8771U, 0x8686868686869f56U, 0x8686868686868686U,
  0x88859a8786868686U, 0x858d66849e8c85c1U, 0xffe5878f6e889652U, 0x7d6f0140786474ccU,
  0x837c82715f708075U, 0x3928ffffcc31U, 0xb02ffffd739U, 0x380b00003ef2U,
  0x386400002095U, 0x7e7e7e7e7f89827dU, 0x7d7e7e7e7f2b7a7eU, 0x7e7e7e7e7f237e7eU,
  0x7e7e7e787eff7f82U, 0x7d807a7d7e0e7d7eU, 0x7e7e82857d567e7dU, 0x7e7e7e7e7f297e7dU,
  0x7f7d7e7e7f017e7eU, 0x7e7e7e7e7f3f7e7eU, 0x174ffffffb6U, 0xffffff660000003aU,
  0x1110000010bU, 0x1b00000008cU, 0xa08e936c7e7e7e6dU, 0xd5797a8c7e7e80b6U,
  0x587670887e7e818eU, 0x7c79af897e7e357fU, 0x7a7ab0897e7eff82U, 0x82be45837e7e8a82U,
  0x81742ac37e7e8d87U, 0x667788767e7e7c79U, 0x7474cf3d7e7e877fU, 0x81e1847d7e7e8581U,
  0x56817e7f7e7e8089U, 0x4a7b7d7e7e7e7a9bU, 0xbf7c7c7d7e7e7b73U, 0x8c7a01607e7e7285U,
  0x908385797e7e7f77U, 0x647593727e7e7c6dU, 0xffffd1aa000005b5U, 0x171800002fafU,
  0xfffff649ffff8b9fU, 0x25d1ffffffc7U, 0xffffd17bfffffa4dU, 0x39c30000291cU,
  0x50c800000a1aU, 0x317000000f5fU, 0xd09ca19491a79f80U, 0x94d99f9491bd919fU,
  0xc0a0a88f8eaa9fb1U, 0xd5d8a4a58eff8d9fU, 0x559da19395889ba8U, 0x99599da096db919bU,
  0x569fa78d8cc99ca4U, 0x64d1a3858d708aa1U, 0xcaa6ac8281809ebeU, 0x8b01a654883183a7U,
  0xba9fa48d8c7e9b79U, 0xb4a59e6d92528b9fU, 0x8d9a9f8f95ad9baaU, 0xc76f9cb09392919cU,
  0x51a0a08a8a759c75U, 0x64909dd28f9e8e9eU, 0xbd9c9b928b9a9a8eU, 0x80d69ab7939b959cU,
  0x4fbfffffce9U, 0x2ac00000032eU, 0x1ad00002b17U, 0x2b3f000000afU,
  0x2a6e00000902U, 0x323000000127U, 0x1420000005bU, 0x3e7000000bcU,
  0x7b887b6b72767774U, 0x6f6f836cc06b7958U, 0x777b799e9b7f5d7aU, 0x746f4f7191678777U,
  0x6d7d78585a75b17bU, 0x7f7c9e814c87588fU, 0x86f7829a7e87757cU, 0x678059725d778f95U,
  0x788845737c767592U, 0x6e908982878e418bU, 0x6d777c62546b9171U, 0x79737d825986739cU,
  0x7a40938790685f5eU, 0x7265617669807731U, 0x89895291824876c0U, 0x78cd63607045717bU,
  0x7d796ad2db787b72U, 0x7371017b6e7a6176U, 0x7c6c67848970456aU, 0x706760705a6a7b64U,
  0x7a796f6f57737a73U, 0x70717654944f9da4U, 0x6b9f6461577f8f7fU, 0x7670920b7c18e49bU,
  0x755521958fbd7e97U, 0x70435a4f7364539cU, 0x505e869e8a926e9dU, 0x9a9643f36aff6b67U,
  0x797f73797e6f626eU, 0x71706d7847737571U, 0x6c877160607d8177U, 0x757393797c726b94U,
  0x80ab667c797e7184U, 0x6d8378785481743aU, 0x626f78837f76787dU, 0x8a77686e716f5073U,
  0xa57e6d6a6f717772U, 0x386089017c01f175U, 0x756b65756e4d6974U, 0x6c7b72736e796f92U,
  0x95c764af9c908b5bU, 0x64664e6f766ccdc4U, 0x7152acd9af81775dU, 0x7a741bb871af2378U,
  0x6562c06c5f568155U, 0x8951648f7487898dU, 0x2b78858b7f7f7d67U, 0xc4706457735f866dU,
  0x7071717d73507682U, 0x777972747e726e78U, 0x78a18f6c687c8c77U, 0x7d65806944648330U,
  0x796872766e83877bU, 0x7b737374a66f767fU, 0x70716e52597f737aU, 0x7a829c6b586a775aU,
  0x7f3d5f8b797a8776U, 0x667453b76eb03c2dU, 0x7771707a7b72666eU, 0x776c6f79c06c7c6bU,
  0x787a706f6e727d74U, 0x6f6e81770b607370U, 0x7688666469878484U, 0x738892874a885e7aU,
  0xffffc78900000201U, 0xffffb4ca000062b0U, 0x44de00002163U, 0xffffcfb300001c61U,
  0x29fdffff650dU, 0xffffd3f5fffffd15U, 0x584ffffe33fU, 0x2f9700003048U,
  0x370000001e23U, 0x3050ffff7935U, 0xffffb6d4ffff1c85U, 0x1caa00002583U,
  0x40940000202dU, 0x6658fffff7bdU, 0xfffff938000031c9U, 0x4d6200006229U,
  0xa493a88a7e8b7c7fU, 0xb37a7ac67c828772U, 0x9d809589857993aeU, 0x357e9d797c96756cU,
  0x736f1a76796d826fU, 0xd29c6e40468c818dU, 0x9e6980af6ba8727aU, 0xba63c65b8e5e88f6U,
  0x7e81897e8184788bU, 0x6c7e8482827a826eU, 0x6c87667b8c6a8e76U, 0x888291877e88888eU,
  0x6c9b786e6eb06f91U, 0x6a8c77218f907d7dU, 0x86729f9591954a7dU, 0xb48566869abd678eU,
  0x9b73de516a69d85fU, 0x13070ce8aacc8ffU, 0x9e5b8ba042e21072U, 0xa1974a68a62e8317U,
  0x9096698d8476596dU, 0x877883838a827d64U, 0x8d855684aa7b7c7aU, 0x4d816d918aa5936bU,
  0x837c5f88857f7881U, 0x6f7880828779776fU, 0x7a808470856d8c58U, 0x937b81877b928291U,
  0x916e8a8886837d90U, 0x92787a8b71764675U, 0x848c786f774d6d94U, 0x47a37b7b6f6f7d75U,
  0x79878080807e8182U, 0x8971837f84787f7dU, 0x7f848673887c9095U, 0x827c7e80817e8283U,
  0xf2a0000208dU, 0x15fb00000fe1U, 0x6580000263cU, 0xffffff8400000271U,
  0x191e00000de3U, 0xab40000069bU, 0xf0000000044U, 0x55100001b72U,
  0x2790fffffffcU, 0x46e00000faaU, 0xffffffbefffffc9fU, 0xba00002a15U,
  0x133d00000000U, 0x22800000013U, 0x9bd00001d8fU, 0x60c00000dc6U,
  0x4f50625d63525c4cU, 0x3c33593f264e7956U, 0x3f5d515847553a5dU, 0x397b88723d504e3cU,
  0x4888594a33212362U, 0x4262444c5f6d462bU, 0x454f6331773d3d49U, 0x6c624c61667b7457U,
  0x55514f51534d4d6fU, 0x5d45524e4c3b554bU, 0x534b4f474256474eU, 0x526e4c50853e5750U,
  0x4d56515241505d77U, 0x4b5a4c5788294c51U, 0x5c4f436345306050U, 0x4c607838434f5c5cU,
  0x4c35635464825761U, 0x51404f4b495d6065U, 0x44594b4636634d4fU, 0x584a474a47647549U,
  0x4e6066454c47405aU, 0x427d494e41554838U, 0x50544f4c63425250U, 0x693242483b471c4dU,
  0x3b506e9b443f5159U, 0x515761444d5f4d48U, 0x761a55434d3f414eU, 0x464d4a5c2d46563fU,
  0x49594e6358596155U, 0x513d51404d3cb755U, 0x3b544c5330694d35U, 0x4c422f6033334845U,
  0x55393c4086574f66U, 0x6245594d59814053U, 0x41514f514a4c4265U, 0x4f85584f2a557350U,
  0x39534f524f534d41U, 0x3e404952414d294dU, 0x455e3e413d40696bU, 0x5696ff48314c455dU,
  0x49455a712f534f2fU, 0x5c48304a482e6151U, 0x4c614e624c4b4d58U, 0x5223016469464b3bU,
  0x53474e4c4353504bU, 0x47526a4d336d5846U, 0x4e4d525959645353U, 0x4960496b6b574947U,
  0x9d3a6e382b304c48U, 0x8b512e8e6449503cU, 0x2c8f4f4f62255d7aU, 0x7d41574853645c98U,
  0x2a48937433394568U, 0x5b4d2e4b657c251fU, 0xac20554652205540U, 0x6435585f484b524dU,
  0x615867646050484fU, 0x6760485d385e4159U, 0x6c6442454c624d61U, 0x6341524753534c5fU,
  0x574c41674e4e9d3bU, 0x521e4f5353774f76U, 0x5151586a465f4a5aU, 0x4b5b3a5a2e313d40U,
  0x4e514e4d6c315981U, 0x54523e524e665653U, 0x43494c5043464b41U, 0x59281766445a6c4cU,
  0x57444e4452475252U, 0x4e5048535c435152U, 0x484f4a544b474e52U, 0x4e48524b554c5255U,
  0x4c3d5248504e5040U, 0x58646c4b36725140U, 0x4f503c4e51594558U, 0x5051496868524757U,
  0x4e5b306c4040520fU, 0x5849534c5646374bU, 0x555b424e4e4c3f5eU, 0x4f7b5c4d594d3d4dU,
  0x424f476156585245U, 0x41534f3d5f7d3639U, 0x385051605f606941U, 0x4c5b603077634640U,
  0x4551507da2528b45U, 0x632d593555286960U, 0x475d523b3a5a4f3eU, 0x4c3e58225f543245U,
  0x58616a3678146951U, 0x36484d5148525d59U, 0x4f66593f62614a5bU, 0x16475a4b46422e37U,
  0x45546f5242495377U, 0x5769463f3c1d4f4bU, 0x4d5541314d324d46U, 0x71305f503c4c655aU,
  0x4a5e5463674d593eU, 0x504b5f46534c574cU, 0x465c514d3c514945U, 0x544a5351523c4e45U,
  0x495a41444a49574aU, 0x956c583865443f80U, 0x373a73635079884eU, 0x4958504825524c3bU,
  0x4d4d81684b92382bU, 0x1b484e494047744fU, 0x62506d4c6651416cU, 0x5c8e656543586445U,
  0x67414b3c4f4d4c52U, 0x545b505f4947514dU, 0x3a6d53534c525558U, 0x5c5b52534e4f4d5aU,
  0x4d3a4a683d905435U, 0x4c434850524b5063U, 0x49554d304e584749U, 0x5f464b4354321d48U,
  0x6658422f49594d55U, 0x52585c544e50584eU, 0x2fbc5f4a48434d5cU, 0x6e62404d494d596bU,
  0x53494d2b66544f32U, 0x5661404c59474d47U, 0x524050393f43484dU, 0x4c414a4859414552U,
  0x44754c54414d3548U, 0x414967513a7b5132U, 0x4c53744963645c50U, 0x4c6333855a635443U,
  0xfffff407ffff9907U, 0xffffee2affffefadU, 0x3330ffffb035U, 0xffffadc9fffff01aU,
  0xffffe204ffffc004U, 0xffffe18e00000e2dU, 0x35af0000229dU, 0xffffba9fffffef8aU,
  0x1fd0ffffe96dU, 0xafbffffff7fU, 0xffffca4cfffff110U, 0xee5fffffe82U,
  0x95500000964U, 0x73fffffa498U, 0xffffbcfefffffcd7U, 0xffffc5cf00005d49U,
  0xbcbfbcb2b792b0bcU, 0xbd919c93c7b699bdU, 0xc6b5b690b492d3b2U, 0x8392bbb9c3979592U,
  0xc5d2c2bebe8eb7c2U, 0xc38d8f96d9b697bdU, 0xccc0b68ac28901beU, 0x7e8ec3c39d928e86U,
  0xafbdb3b3ad9baaacU, 0xb39a909ebeab9ea8U, 0xb6b4ab98b6948bb3U, 0x8b98acb1879a9997U,
  0xc4cdc8bbc68bb4cdU, 0xcc878f9194be91bcU, 0xcbc2bf83c18effbeU, 0x7f8ac2bcd68d8d85U,
  0xcce2dbccd985c1d8U, 0xd37c898f9ac68dc6U, 0xd7cac57bd08650d0U, 0x7a83d0cb9d86837bU,
  0xb2bebfbbb797afb1U, 0xb59297989db199b1U, 0xb9b5b18fb7958bb7U, 0x8794b9b676959192U,
  0xb2bdb5b1b999a9beU, 0xba93929a79ae97aaU, 0xb4b1b394b398e7b5U, 0x9396aeaac7959896U,
  0xb9c0c0b9c796afc4U, 0xc08b989569b796b1U, 0xbdb1b590b6986cbcU, 0x9192bab19b959594U,
  0xaaabaeacab9ba7adU, 0xab98a19987ad9dafU, 0xadaaad98a69c7cabU, 0x9698b2a8879c9b9dU,
  0x22d00000477U, 0x19100005e4aU, 0xdb0000016fU, 0xffffff1cfffffe4fU,
  0x2f7b00000054U, 0x8cb0000010eU, 0x248600002f22U, 0x7700005618U,
  0x1b50000000f5U, 0xffffff2c00005e89U, 0x81200005ccbU, 0xfa2000002a3U,
  0x384700005ce5U, 0x23bb00002f58U, 0xffffffd1000003b8U, 0x2b9000006d5bU,
  0x6e78b690cd635cb6U, 0x637a655a87aa597fU, 0xaa6359678da375a7U, 0x4297755f9648706aU,
  0x74726d717a5a6774U, 0x805a7f7879767671U, 0x6c657a795d857677U, 0x73c16b706c687a5fU,
  0x86585a327446486eU, 0x6573868276bd6194U, 0x79615c6d33434612U, 0xb44c7f4689bd7942U,
  0x5a6b718b7d1a9271U, 0x4f8963706f4e8791U, 0x829866744a7469c3U, 0x89ab765277877a90U,
  0x7fa46e7a7e815e73U, 0x796b49906b5c6f4eU, 0x70586b77906f658cU, 0x7f762f8e7b5e7d72U,
  0x552e6a90806ca95eU, 0x88cb777a736dbf91U, 0x867b59396d927c67U, 0x499e29a7736c4e53U,
  0x7a73909488b8636dU, 0x9057a9c3829b6991U, 0x59726b5ea05372a1U, 0x80b27764508501a5U,
  0x5b867a7288859176U, 0x897a4754587c6278U, 0x738a42a190617280U, 0x7182577c7d688f99U,
  0x616b404b8c995885U, 0x737d776d8785596dU, 0x6e66504d645c8382U, 0x4b8d68726d6f8451U,
  0xcf50a09660892842U, 0x68a669715cb7889cU, 0x1f515094ad657db9U, 0x9884555c6c998c62U,
  0x899d2956724d2b9dU, 0x8b887976f27c5d60U, 0xb15f757d606d4685U, 0x7a359c70317a497aU,
  0x7c7d99857c4c7a82U, 0x55797e6f5e73788eU, 0x7a84876da0968071U, 0x5bca728c6e645d65U,
  0x5898746c7d6d7871U, 0x6f687f556fb56bc7U, 0x739f57944f697250U, 0x6071e78e7f908d4fU,
  0x7373555c74b05f71U, 0x8f4d76726d5e6a6aU, 0x646263706c917565U, 0x6b9f7856607d5455U,
  0x7070777b63659474U, 0x737b6c615a75807cU, 0x6a8c6c7975429367U, 0x3d786f887e73766eU,
  0x787b7a8c66527f7aU, 0xd181747563598b5bU, 0x6267926a51648063U, 0x4c4e81746c714f52U,
  0x736b4c5075fc8447U, 0x6b6b6e767c876c5bU, 0x64a06480644e688cU, 0x7a2769a05f696876U,
  0x4e9395983c7d7358U, 0x8a8d1192701da315U, 0x3b63947fa7486dbdU, 0x598e5d628220893dU,
  0x7e6564636979657fU, 0x5e6474766776605dU, 0x736c7a6f648f6676U, 0x894f6964517a7a51U,
  0x6266867a842b7d6dU, 0x51736b556b797773U, 0x605b5470785d6e6fU, 0x79806678814975a9U,
  0x6f74906c62905674U, 0x5c62797c655c6383U, 0x67667c5a8b337368U, 0x7d5c6f4876756d5bU,
  0x69c06c7a6d7a656aU, 0x75694c7a81497c4fU, 0x68595f879e6e7aadU, 0x817b6d638149886fU,
  0x706f6e8e6849647eU, 0x70597a6f6e778176U, 0x825f85736d9e7376U, 0x6bd1736375737c64U,
  0x4e7eb08e1a5b8f81U, 0x8a333631719a8c69U, 0xaf6983977d404084U, 0xb1727c67cc6c811bU,
  0x5a515543725a5171U, 0x5e78807988c67769U, 0x4a62a86767a18ebbU, 0x478749629899277aU,
  0x5b59af95577d5a7dU, 0x628f7b72717b7799U, 0x7b5c6479ab6c656aU, 0x7678595c65736a79U,
  0x43a1a19c6f797667U, 0x66b64d31ad328273U, 0xab42bb647ae2793bU, 0x29339857577c754eU,
  0x6c75725d8043687aU, 0x68976255726a5675U, 0x77586c74717c736aU, 0x70406a59646c7084U,
  0x68447f7d6971767dU, 0x6f768145689b6a79U, 0x697c568161736f55U, 0x8074a95a638d7a6aU,
  0x6e717d657b67657aU, 0x6e747d4874936995U, 0x79834f826684685fU, 0x765d9d6e7780725fU,
  0x51ca557e4d739764U, 0x7f646b615b6d7a73U, 0x64646e9e7a2e6e61U, 0x6388bd756e5ea3f3U,
  0x6e7f6a5f5b634958U, 0x798076727c4f8871U, 0x4e6f8d847065795dU, 0x728b7e6c828b8515U,
  0x669c5f5b5c435f51U, 0x468f7a875854a880U, 0x49683dbd837d676dU, 0xa236ad796662a34eU,
  0x8260695f925e5d84U, 0x5c67766c86774b6bU, 0x906b71746db88176U, 0x874c615b8762756cU,
  0x545d70af88876571U, 0x7c6a5d45617f61a5U, 0x64754196566e827fU, 0x706f84986e628a93U,
  0x62806274525a736dU, 0x749277866661b174U, 0x7d7234736e1f856cU, 0x4ec685867a6f8462U,
  0x1f50543a58b964d6U, 0xbb84645f5b84419cU, 0xae79176585386589U, 0x9b5d4f7c7830833fU,
  0x5459707e6c5d9660U, 0x74816c7479827672U, 0x5f706c5a6a4f817eU, 0x53af4e8867747777U,
  0x7371695e6f694978U, 0x66817d7d73716a63U, 0x836d8d647b95677fU, 0x7f676c607a7a8a59U,
  0x4a66947046839b88U, 0x7e6e9b2e5d939296U, 0x4c657e7d2c43622aU, 0x619c927c70979257U,
  0x6c68696e8607737aU, 0x778967667c82685cU, 0x70686e817e92705fU, 0x74ba6f6f687e745cU,
  0x726f6d6078bb6e76U, 0x726871766d6d7a6dU, 0x6885696c6958727fU, 0x7a5175767c6b646eU,
  0x695e7375726a7c7cU, 0x775c79477d9c759bU, 0x727f5f7f5b726d40U, 0x7771b07787727c7bU,
  0x7d507469759e6f6eU, 0x6e759d5a707d6575U, 0x63716b675e677d4cU, 0x628590a878766972U,
  0x6b648f6470726480U, 0x737a675a75646490U, 0x7f6a74769b6d6868U, 0x7f416667687d5579U,
  0x7f6466646e1e6f73U, 0x6f8e59586a74655fU, 0x66696457624b696bU, 0x7111616a676c788eU,
  0x587e5864687c7771U, 0x7b6f7c7d5f627f5bU, 0x727b61615c196a61U, 0x57a37c76756f7f72U,
  0x67887b8089896585U, 0x905c535974893f82U, 0x744c378e82ad8578U, 0x8480815a636e5890U,
  0x6da6776f4b685e78U, 0x6d7b458c675a6e5cU, 0x704d6486848479a1U, 0x837940735f577476U,
  0xa47271728e839e78U, 0x824663577a766875U, 0x8d8e9e447e7f6875U, 0x7760758465534296U,
  0x4476768eaca37252U, 0x50b5776c69647a74U, 0x37718c5f67a08d57U, 0x14357468867e5e8aU,
  0xb171909c4d5aca63U, 0x6065465a9b648a95U, 0xa0669b2d9e516c4fU, 0x4d5170768d887b39U,
  0x77458db11364a2ceU, 0x975e5c5a8657b081U, 0xff6a6e5d69998d5bU, 0x7394498a69458728U,
  0x5044587b7354977dU, 0x746d637284838262U, 0x6974873d5a41737eU, 0x4142478f22697667U,
  0x886b6cc26aa2416cU, 0x765553795c634355U, 0x4859a18c62619065U, 0x916642c26533887dU,
  0x4d78476167748070U, 0x8d77878b7987467fU, 0x7e9a6c746c6b6a95U, 0x675774b36f5c7d4dU,
  0x7f80604c99036777U, 0x668b7b7b834632a8U, 0x58756967a461674cU, 0x6dbb847d5d56688aU,
  0x6a4b6e7051867b73U, 0x7084584e6f796c85U, 0x626e6c8e7b7c7070U, 0x7c784a76736b7d83U,
  0x69976573736d788bU, 0x8b687a72747c7559U, 0x717136424c1f5e77U, 0x51979f6f775f5185U,
  0x817f8b7a32705c79U, 0x6946816a5268b08cU, 0x3e797e979c6d7a5dU, 0x7abd73757c7a8344U,
  0x7b4f78717f879573U, 0x6c5e896371576078U, 0x5cc8756d56815f74U, 0x6e8b834b767e6c6eU,
  0x63716377583b889dU, 0x7d6f726d69613a6dU, 0x64707e6a7473684eU, 0x6ca86d67664d5e61U,
  0x70a8727d746b3f6fU, 0x767e407a714d6d57U, 0x72504a93af8766b0U, 0x74637992824b6f5cU,
  0x887b4e579d5e5368U, 0x894f888bb4697c70U, 0x8d658159776d7365U, 0x704d835b75762f64U,
  0xe81ffffcc0eU, 0xffffda9c0000340fU, 0xffffe65a00001522U, 0xffffe72affffc1ffU,
  0xffffa45600004d68U, 0xffffe33d00003e9aU, 0x212bffffcc0dU, 0x62e600003073U,
  0xffffec1dfffffdddU, 0x463400005178U, 0xffffff1800006d40U, 0xffffdc1cffffe670U,
  0xe4600000ac4U, 0x5691ffffef57U, 0x12ad00001154U, 0x232affffe91eU,
  0x1cc5fffff18dU, 0xa35000002f9U, 0x33e500000fbeU, 0xffffb97300000cdfU,
  0x254e000021a5U, 0x13a30000002eU, 0xce570000366eU, 0xfffffe1500004ae3U,
  0x34bc00002206U, 0x615900001165U, 0xd074ffffbb48U, 0x4364fffff44cU,
  0xfffffcc200005943U, 0xffffbd9b000082a2U, 0x5f1c000002e1U, 0x766f00001930U,
  0x6657605767687563U, 0x5aaa575554536e74U, 0x7586815e4c6c8c6dU, 0x646914af8d546063U,
  0x564d6675674f5c6eU, 0x7a63608048398669U, 0x6283735e5b656153U, 0x648a563a5b5d7168U,
  0x6f5a896c566c4499U, 0x4b3c595d8b4d714cU, 0x85cb4c5d9c816a62U, 0x6d75881c495b534aU,
  0x846c7c76476ba294U, 0x4be656c63e52464eU, 0x4f852d3a4e6d7633U, 0x996a4c8faa5e534fU,
  0x495b5b66666b7456U, 0x6c4a61554f5a6b72U, 0x6d5f46615f6e636dU, 0x676781625d606567U,
  0x7b4b5e63706d5962U, 0x785a5f5f8a966779U, 0x6d077466636961a9U, 0x5c375a56505f7568U,
  0x6f7477459695ff73U, 0x44a341558161745dU, 0x6c44617e43405a5aU, 0x50759d5ec05c4373U,
  0x9b80497654234373U, 0x6662754ca05c121dU, 0x426c827858716c4dU, 0x5e70748b6a704863U,
  0xb99e947c907e0767U, 0x3e3bdd57a3648a2aU, 0x7a3542b0ad34964aU, 0x527bb8a14f5e1d87U,
  0x9be423a02aa98486U, 0x1d10cf336d3d4045U, 0x1a92988f32a9baa3U, 0x329a75938ebc013fU,
  0x2b6b6d7d486b3770U, 0x544748616962666dU, 0x605f61764e458562U, 0x58715a4b20625d6aU,
  0x576e586a5e7a4174U, 0x6b75605c1b6bd5daU, 0x586e796c675f5a5aU, 0x657e683866605369U,
  0x5f765b4a6a738767U, 0x62775d5e60686853U, 0x5666545c647c6965U, 0x58616c337255696aU,
  0x905a766f706c615aU, 0x77674f5e6b764a77U, 0x6b6252716c646077U, 0x5b4d6f6965526b6fU,
  0x5f76736f6a6a404bU, 0x635c675c0f766d6fU, 0x5347587067c7875eU, 0x676e4e80576a5785U,
  0x8360605ecc657874U, 0x68556b5476526b3cU, 0x736962845e686177U, 0x45579e6b6862496eU,
  0x6d71597b605a6c6eU, 0x6563576c79656756U, 0x5a6c6b5c627c7665U, 0x5c5f4868685c6f65U,
  0x62637071605d625bU, 0x77674e62634f807fU, 0x6f6a525f6d656034U, 0x666d695b645b6d6eU,
  0xfffffd39000002dbU, 0x118ffffff06U, 0xfffff7190000132fU, 0x2d6000001aaU,
  0xffffff2900002485U, 0xd00002532U, 0x9ed00001215U, 0x26d0ffffffdeU,
  0x44f00001ec9U, 0xfffffeaafffff839U, 0x1cd7000004f0U, 0x1c3b00000072U,
  0x2ea2ffffff07U, 0xfffffed70000123dU, 0xfffff51f000005afU, 0x195afffffcb0U,
  0x1c22fffff407U, 0x8600000142U, 0x1968fffffe81U, 0xffffff97ffffecd6U,
  0x256fffffee9U, 0xc30000016e6U, 0xea00000049U, 0x222cffffff03U,
  0x44000002daU, 0x1e19fffffd4fU, 0xfffffe45fffffd84U, 0x33080000002aU,
  0x329e00002590U, 0xfffffaf300000053U, 0xfffffa9ffffffe54U, 0x1696fffff875U,
  0x874e52b2707579a8U, 0x8667a15782966363U, 0xd69e4fac613f6c5bU, 0x76348e769484a069U,
  0x66767b97b367a764U, 0x9754479fae5d7178U, 0x5c63a2a2844e2d7dU, 0x8581986b8fa8907dU,
  0x7b76495daa83a497U, 0x756b9074978ddb51U, 0x627875708ba97d80U, 0x5878719788a95574U,
  0x7c607fc9527b648dU, 0x126f4b816d809fbfU, 0x4e7a80728d5a588cU, 0x5f807c83908655b2U,
  0xd17e079f8e7f6791U, 0x7c60663e849b6089U, 0x9d785188817ba0afU, 0x86d5acc2665f7a70U,
  0xbb66814d689ea26aU, 0x697e2b639a7f6d6eU, 0x587f7aa3855972d0U, 0x959f7486a1998298U,
  0x8f6f929579c7a06dU, 0x897e933688767083U, 0x9880e16c6f556473U, 0x5c91ca5a8f898f82U,
  0x897d75756077836fU, 0x5b7681735c35a3a8U, 0x7b726c6f826e5082U, 0x763781948d5b7b72U,
  0x77b4605c8c97a695U, 0x74768699988a78beU, 0x6fbc8bae7a788b92U, 0x8d546a85858c6c7eU,
  0x8d79815f83779191U, 0x6a666aa86f81828fU, 0xc8a065998267a17fU, 0x9e6b897cb761ab3fU,
  0xad6b36cca95c81a9U, 0x84545f62699e59e4U, 0x789730989d2f577bU, 0xa7b16d82627e546bU,
  0x525662768e8ea650U, 0x6b40af6c8c3d7e78U, 0x977e7d847666707dU, 0x75608d7b4b6c4f75U,
  0x776559816696677bU, 0x9a6b7674827aa373U, 0x73de689653537a8bU, 0x5c769b7d78958087U,
  0x78758b986f819294U, 0xbf7cff718587717cU, 0x7356a18787584484U, 0x85979462828ea58bU,
  0x7e9279689a737c5fU, 0xa9766874a6c7797dU, 0x6466607288a85c95U, 0x9e7569988a738489U,
  0x577050908b84b890U, 0x6661ac907f619395U, 0x965a8e6d7d564d9aU, 0x736756736f857b29U,
  0x888077866d5c87abU, 0x597f75a284b6925bU, 0x868a7a7e60864092U, 0xb61557a46f839880U,
  0x3b66498e688fcb12U, 0x4b44ba8b6b606e6aU, 0xdb67b086729994a8U, 0x6d3d7b654e7d579fU,
  0x78995f90657b9999U, 0x6386b26d8d796f6aU, 0xa3719892647483a6U, 0xa75a7571b8977e92U,
  0x868345ab816d2a79U, 0x93994130899c648fU, 0x77a87279b976716eU, 0x80718b91b68d8f87U,
  0x7b9c6c474b76874aU, 0x516ae8568b517784U, 0x7092845742bb81abU, 0x537caa81857d9e68U,
  0x7f71ae9a7a86a1c8U, 0x319b5e9567906880U, 0x698587a39a4a6b8eU, 0x4eaabe5e7c91617fU,
  0x8961647475979889U, 0x73656c899a8e7cbbU, 0x757d5574986b9276U, 0x8e8b836c5c717e69U,
  0x7e697d797de0a768U, 0x6d9d867b6e7e2149U, 0x655a8b865b8a6b87U, 0x89737fd477763a98U,
  0x8a4e6698c4437a71U, 0x7286606167864b6aU, 0x6f7f7844a2976c89U, 0x8a8e838c908eb67aU,
  0x64566e7b8c8d9555U, 0x6a78986871777561U, 0x5b9195786d789084U, 0x72845caa7498806dU,
  0x895e796d9a7ca368U, 0x77989b7a778488a3U, 0x86627c4b81667879U, 0x7e5a6c88ae478e95U,
  0x7b887d779e9183b7U, 0x5d749172767899aeU, 0x60897b70a5bc908aU, 0x9e6c7e8a624d798cU,
  0x885e93487751856aU, 0x8077895b7e80838eU, 0x6885d1928a68485dU, 0x6f777766897dad60U,
  0x9c635d7688aa6375U, 0x9a717271757f8286U, 0x797e62618292815eU, 0x9b8a9697a68e6176U,
  0x835a589650746e82U, 0x6e5c987873717f7aU, 0xc27a6ecf6e449a53U, 0x507fa05a6a866e75U,
  0x9f6aa276d8709687U, 0x4393708a896a747dU, 0x7480778069906254U, 0x679eca7073897c6bU,
  0x7d7277858c538e6bU, 0x857d82e9806a7d7aU, 0x8d83278a7156a083U, 0x6e752a8d8f8b867aU,
  0x6a948c70656d8c7cU, 0x52878a8fbeb784a5U, 0x6b936b87806a6267U, 0x79ca856c8a638879U,
  0xb44d60b26d7080c0U, 0x645d7a5e9cc8985cU, 0x185414e7c7f59aeU, 0xc56d7aa258739752U,
  0x636856615b9c9178U, 0x454e825e5f4d7b75U, 0x5e96f36a70922f94U, 0xb3778ea05e5848c0U,
  0x835daa8dba6f7962U, 0x75788d6baea45ca6U, 0x8d6c74579d736f93U, 0x72727f8979958190U,
  0x758b4f5e917d9f5fU, 0x8a945c848a71997eU, 0x858297b979508785U, 0x8584969aa48f8a24U,
  0x7b608d7839976a8dU, 0x927cca81737dad85U, 0x947373a9559488b0U, 0x7374768f7a867d65U,
  0x84b8647266789e83U, 0xa968729d876d908bU, 0x7a6d798271533093U, 0xa0849c7b894f3cacU,
  0x834c6ec0a1ac6c7eU, 0x8368786195838c72U, 0x7f923f8f516f9a9cU, 0x8e4698d379848097U,
  0x99949b7e746dd58aU, 0x864a78b79f477b77U, 0x7e768e70918861cbU, 0x7c929c866379af6aU,
  0x818c97f1b2948a5aU, 0x91af78768298a599U, 0x9a65847eb779928eU, 0x56ab6b8a888f79a8U,
  0xa28364806f734470U, 0x9f7d7665977e7675U, 0x5b92606f71887b93U, 0x866464a185a46f8dU,
  0x89796857987d8376U, 0x8c91986a7f6f7d8cU, 0x627a7e63a1856a9fU, 0xb2aa70977b7892b4U,
  0x61956c6e987b9f76U, 0x8987928e7b85988aU, 0x42897c748f7596a2U, 0x9a6d788c746c6550U,
  0x86ad67886678825cU, 0x4c72a67673808787U, 0xb7607a6090855c95U, 0x6c40677f96a9a39eU,
  0x5f5b676193798970U, 0x6a6f61a1a8767476U, 0x6a8e86693543ea88U, 0x8b66b57d6a6e7ab7U,
  0x8c8c5a8eac744490U, 0x786c619fbd92606fU, 0x5fa0848c826abd92U, 0x95ca5d5f5ba33b65U,
  0xba557a60a671a37cU, 0x61949e7f6a726d47U, 0x8b62898892736057U, 0xc25b87877ac65767U,
  0x66604983665b3881U, 0xb95a8b7f5e705a55U, 0x77866c4d5a737a54U, 0x9291767c6a9cc350U,
  0x7c7f7fb27459d16bU, 0x7663ad87756a6254U, 0x57558759a860557eU, 0xa1768673577f3a9bU,
  0xb965bfb28b4a7472U, 0x72f57681a4717766U, 0x857e917eab4c8f69U, 0x607e7977855a758cU,
  0x9353656081bf7182U, 0x7a8b6396767d7f68U, 0x75a58098649e8486U, 0x907173a282a9798eU,
  0x9d8478899f6f717fU, 0x987f618596968886U, 0x5481624e8e72799bU, 0x8c76849b708681b4U,
  0x7d77636e52857f68U, 0x8267ca8568648a74U, 0x9e84775765b43a93U, 0x9b804a9275685b61U,
  0xaf854d988b8e7b68U, 0x72857f639e456e58U, 0x7790ae7a82968b95U, 0x4472c37f98626998U,
  0x8486a43db49b5958U, 0x6ca44b8694b68f90U, 0x849766546c98838cU, 0xadc698a8769b7173U,
  0x9d63758bb5776564U, 0x8367636b586e84adU, 0x717e7d21b0698270U, 0x89988f6d5fb5d66cU,
  0x7b4a949b7c87916fU, 0x9374b492887b7951U, 0x52918d6c724aa771U, 0x53935ba4589a9444U,
  0x6360942f59a17e6bU, 0x779ea69e577a5dabU, 0x6b60a56259a88e82U, 0x9c735e787a86926fU,
  0x88bd705b8c7bb397U, 0x9d9f5d4e7b92ac98U, 0x789872648cb77b85U, 0xaa6b47738e3b89a3U,
  0x917bae6f99957651U, 0x8c84829c3bb7677cU, 0x8d1c88807d65986dU, 0x64a1627b76999c58U,
  0xa172468e4c8d88c0U, 0x9a51957e7484746fU, 0x976d666eae973a77U, 0x93616c7992679579U,
  0x8e5a706783616e6eU, 0x9d8074718e8dad79U, 0x8a8d786d84724ea9U, 0x8a9f877b88a98675U,
  0x4b6d817d5988796bU, 0x6d68717e727a8678U, 0xa38279418a766b7cU, 0x7894839877955e6aU,
  0x84a38a49847e6b59U, 0x8274717d9da38695U, 0x706b6b7d89ce5d70U, 0x327a47b88392a05dU,
  0x6a427b7a5e8bdd88U, 0x5d569d74635c8181U, 0xad74af815681a1c6U, 0x604e89816a739293U,
  0xa28f517a72848770U, 0x5c8378797f958b4aU, 0x8d8687c295767754U, 0x7b4f83828e81a570U,
  0x836a89848696755eU, 0x6f797676688c7b9aU, 0x58a68f71728ca382U, 0x88939da36d877c9fU,
  0x899e7e8d78937566U, 0x726a828f88737ca2U, 0x7f7e8e8573837f5eU, 0x7c78797e837fac66U,
  0x82a1917c8676768cU, 0x857e736985846a6fU, 0x838c7279896fab80U, 0x927091846d779c75U,
  0x6388776daa836f87U, 0x80849a89865b837dU, 0x6f69ae4a8269a2baU, 0x7063865a7a83977cU,
  0x99a38aaf915e7b77U, 0x7774a1bd72ac7c7eU, 0x8f7f566e916f4e4fU, 0x9785587d30599726U,
  0x87a7d7816b8c708eU, 0x958b9ad28867c42aU, 0x7089ac888681328dU, 0x871e617a8d59807fU,
  0x419c8d7293788c79U, 0x85a63bb56c8f8380U, 0x7461a6878b83597cU, 0x6c52b66b61b4858aU,
  0x8d7a7b78a672ae85U, 0x81957479948f7777U, 0x8295857a827e7d5eU, 0x72418b7da3903f91U,
  0x786d6aa273966f77U, 0x748d807c897bbdd8U, 0x42787389605c787eU, 0x88809d957d7d4961U,
  0x826d635791768764U, 0xbe798f7981b17f4cU, 0x744687f37e7b679cU, 0x768666a18497497cU,
  0x61804ba05c839298U, 0x515c728870829898U, 0x75909680735171acU, 0x9d65ef7f896c4c5bU,
  0x717f726889949672U, 0x687c807c8c72777cU, 0x869284a086687d7aU, 0x6c56a0968e838475U,
  0x7e666f76766f73abU, 0x9b8cf68688828fa1U, 0x647a918b5d5c568cU, 0x6492798770799673U,
  0x66865e895d95987aU, 0x777ba9577b5b64a1U, 0x7687b195585285b2U, 0x7565d37f9694878cU,
  0x7c7a9e6891ae8368U, 0x6b6c5c79795f7aa0U, 0x8d5a73967a6a8358U, 0x9f49808c9e706199U,
  0x907e87707c7d908fU, 0x717288788a748769U, 0x897c627a7c7dad76U, 0x788d798f87898684U,
  0x5f898077867a8c81U, 0x838b757d98928978U, 0x7b8c8875898d7e81U, 0x7fa86c8e87838d7dU,
  0x878d8d79677a7f76U, 0x3856bd897a7a5983U, 0xa87b7a66445a92afU, 0x93a492727a537355U,
  0x9f7997bd78728578U, 0x5a4e498a946e7880U, 0x5b6894ab67566f7bU, 0x84997c6539bd5383U,
  0x916a7d82747b7d6fU, 0x6e7880878780747eU, 0x7787785e7e747bbfU, 0x486b798478718f7eU,
  0x768b73788a89837dU, 0x7f8e707a76736171U, 0x7a7d7f8977637c7eU, 0x847d86818b827981U,
  0x926189718d5c466dU, 0xa87287a076b2828fU, 0x8483927b97c75888U, 0x897a767c4c7bbdecU,
  0x588e4a886a8e644cU, 0x8bb6d67173886154U, 0x8775a76f693f926bU, 0x565d618d629b3872U,
  0x96726d57693b955dU, 0x8b65a964747f8863U, 0x79575430678e6f80U, 0xbcaa8783657a9281U,
  0x8068847d8a8a7b64U, 0x38bbad726c556473U, 0x63866a5e8671957fU, 0x788f7c7a687045a0U,
  0xd97869cebf7c4760U, 0x8a516691a18f61b2U, 0x6d887773c2534c65U, 0x81435686177c9a65U,
  0x554e477c7a959979U, 0x757754693b6a5207U, 0x65b27b6a70838663U, 0x994d95a7587a3989U,
  0x6476eb889e4e5f74U, 0x957a9d696c9f8779U, 0x848e7e9b9275649aU, 0xb77b73575e647677U,
  0x55535d7381795a65U, 0x995d6a92687e6d3fU, 0x8d72796f889d6b65U, 0x6a8577885fcd7b71U,
  0x8f4d657a4c867466U, 0x7b69aa756e85909dU, 0x998f66995d8f7240U, 0x798e6c95828ab748U,
  0x6a7e985862918b97U, 0x947184547764675fU, 0x8a8b906272659898U, 0x7a6a5c819a6a6bc4U,
  0x833f69adab754ec3U, 0x6b8d6e8ab2ad3b6eU, 0x79cd7054af958531U, 0x67996c7d60828eb8U,
  0x8667906064787c6eU, 0x9f5bb4bb6a6e8451U, 0x828d8354706b787bU, 0xa376709fa6af5f8eU,
  0x99766c59bc6f81c7U, 0x7d7e7576847e6d5bU, 0x758f7e48848e86afU, 0x96617c8184866b9fU,
  0x749e65af78907b54U, 0x468c9a647e6a9196U, 0x757084945e64db8cU, 0x70716b8261848151U,
  0xca4669745f699e58U, 0x8274758d8e9671a9U, 0x626593ae638087b8U, 0x9166777a7b6b6274U,
  0x7763638758a98f6aU, 0x8361dd8d7f6d6b66U, 0x6eac756f566a9d65U, 0xa283795e917a5493U,
  0xc2879486876db474U, 0x7677697591888e99U, 0x9f6767848f6a6764U, 0x573f7c6c8e5d6563U,
  0x6443569255be626dU, 0x6c896e84927db5c5U, 0x87789e675190766bU, 0x6774687c8e9f2cc7U,
  0x7c91618c6b596f41U, 0x9f6a647c5b5b7f94U, 0x89777b88858b855bU, 0x93bd7d8264857cdbU,
  0x7f62947f6167ac86U, 0x5a63b88c86725a59U, 0x9b63836587775f80U, 0x6e787e725a957fc5U,
  0x8f6f5f5a6660a978U, 0x7e8a5a6b8c98718fU, 0x7b909cc4929d7ccaU, 0x7cd577768655877eU,
  0x854d947c5ea15c61U, 0x93a1c06c6ba77384U, 0xa19d80806d9ca56eU, 0x6f666f727f9bad81U,
  0x7f64957867854c85U, 0x8c658897793e6e95U, 0x6ec78479705b7870U, 0xb35a8a765a37637eU,
  0x6dbbc6797b766454U, 0x8b969f967f89614aU, 0x8b669096689e8a78U, 0x82839970386e629cU,
  0x7b619e7d5c6e8070U, 0x64a98e838a606645U, 0x7352787273445f8eU, 0x958c6f9679818e6aU,
  0x697540678189925aU, 0xa3abbe777d7a6e74U, 0x7966a38e72b25f92U, 0x876c947c8ba4977dU,
  0x887b58677d8d8889U, 0x655b965aaeb2cd72U, 0x959c578b4c724b63U, 0xc34d629d79ac4a7eU,
  0x4d6952846d7db29aU, 0x7c464d939d5a96a7U, 0xad5e74998d5576a9U, 0x79678464ad6d3b65U,
  0x83746b9a80906554U, 0x965a97926ea28d65U, 0x597661a36493667aU, 0x6c4a737a698c8178U,
  0x658e85926b74817eU, 0x7d8684816b79796cU, 0x856f8a75838b6e73U, 0x7b69a4a17c69637aU,
  0xa459618780588880U, 0x8f649072a39d8a78U, 0x7c6f64458a736b86U, 0xacb0879c699d8d97U,
  0x6992537067948648U, 0x65516d6d6e68867cU, 0x926eb694954f2c87U, 0x9c83a7778f85629bU,
  0xa867837e7d6e9877U, 0x6e928a98838d877fU, 0x647b65848061ac68U, 0x6c8688817a78a570U,
  0x1c5d4f8180865a79U, 0xa16e796e61b47f72U, 0x809b67687d917a6aU, 0x947fa06d8f965f6bU,
  0x86707c87816d8f76U, 0x7b8f895e808c6783U, 0x878b6f8987618464U, 0x7da685869c7f8571U,
  0x7e6a8377898a7a6fU, 0x8d778081966f8b8fU, 0x8091818a63789889U, 0x777f7898897e777eU,
  0x684177863e57c29cU, 0x649dac8a4d9448aeU, 0x4870643077635e7dU, 0x6e7e4691a8ad8c5fU,
  0x4f585a9d536aae35U, 0x4f878f3f68525599U, 0x8e83b397f6c93391U, 0xa34b668b42645dd0U,
  0x454affffa021U, 0x1bbeffffb766U, 0xffffd8a3ffffe321U, 0xfffffb1fffffa6cbU,
  0xffffdc50ffffc9e9U, 0xffffd3df00001784U, 0x22c800003e96U, 0xfffffea200001340U,
  0xffffdae100000009U, 0xffff9e65ffffd614U, 0xffff7ae5ffff91e7U, 0xffffc7eb00000fb7U,
  0x432bffffdb6cU, 0x178800000336U, 0x24fffffffc8cU, 0xffffe1f6ffffc6f6U,
  0xffffa32e000050bcU, 0xce2000002d1U, 0xfffff42000003f0bU, 0xffffd3c60000536eU,
  0xffffdf9200000f71U, 0xfffffd1000001426U, 0xffffb80a00004119U, 0xfffff7c5000049e1U,
  0xffffd254ffffe422U, 0x530ffff891aU, 0xfffffd2cffffd7cdU, 0xffff857cffffd135U,
  0x2beb00002becU, 0x2006ffffe032U, 0xffffff99ffffef6dU, 0xffffee970000104cU,
  0x8080857c88484ab5U, 0x4eae54368a8c8d7cU, 0x7b8f943a4f84bd7fU, 0x8385828255578472U,
  0x8c4c837ea448ba59U, 0x9b4e843593499e4aU, 0x828e825184b07e79U, 0xc82694af3f8e5a78U,
  0x8c8f8e85894941c2U, 0x44b04e3ba59c9b83U, 0x8b9aa6273c92ca8bU, 0x858f88874b509079U,
  0x97418c87ad44cc4eU, 0xb44f8d29a03e8841U, 0x8d92914f90b8888bU, 0xd501b2bb3ba4527fU,
  0x787f7d707452539dU, 0x55915641807f8375U, 0x778d8c435782a87fU, 0x7875767155577d74U,
  0x7f4d75788c569b5aU, 0x98577b57854c6251U, 0x7882795f77a17778U, 0xad25999d598e5675U,
  0x99918785874740bcU, 0x439e4c24a19f8e90U, 0x906e9e3b3d91d791U, 0x908c8894473d8688U,
  0x963f8b91614ad83eU, 0xb2448d3b9e3d9647U, 0x889a8f4891e18f8eU, 0xd369a3a645a64c84U,
  0xaba49090974437dbU, 0x3abb3d2bccb59e9fU, 0xa36eb43027a2f09bU, 0x9e9c96a037359295U,
  0xa933929c5f44ff31U, 0xc03e992cb43b9534U, 0x98a7a145a2f197a6U, 0xeb61bcad43be438dU,
  0x888a7e79834e4ea1U, 0x549851358e8e8181U, 0x8470934d4487b97cU, 0x83817d784c467c7fU,
  0x8b477c7f5854b94fU, 0x9e4a7f569354764dU, 0x808b7f5584bb7c89U, 0xc16399905a97577aU,
  0x8984787975565294U, 0x50725c3b84847482U, 0x863d83594e84b186U, 0x81857a86554a7487U,
  0x855378844f589c53U, 0x99567d628d4c7153U, 0x7c827b5680bb7c80U, 0xa69d887b628f577bU,
  0x918e7c7f834e47a6U, 0x4d8a513ca190838aU, 0x922b90573d88c87eU, 0x888b7b8d4c477392U,
  0x9254788c4150b44fU, 0x944e835b994b7849U, 0x858e82588bc9838eU, 0xb6b480776c9e4e80U,
  0x7e7772717c5a588bU, 0x597c59457a7b7b79U, 0x79447b615278a86fU, 0x77787674594f6981U,
  0x7d5b6f795b5d8e57U, 0x84597269865b7857U, 0x797c765a78a2747fU, 0xa48774776b8d5b75U,
  0x2a510000004bU, 0xfffff9d50000277aU, 0x695fffffd5bU, 0x61fffffdbaU,
  0xffffff62ffffff25U, 0x3720000049bU, 0x43d700002d1fU, 0x4804ffffff4fU,
  0x10fffff801U, 0x3fd6ffffff08U, 0x19300006492U, 0xd5fffffea4U,
  0x14900000526U, 0x322e000028aeU, 0x42a00000485U, 0xffffff8effffffa9U,
  0xfffff85d00004751U, 0xfffffa2e00003cd9U, 0x651000000a8U, 0xfffffe2700003ea1U,
  0x7300003e97U, 0xffffffc500004838U, 0xcf300006413U, 0xffffffc400002c53U,
  0xffffffb8ffffffabU, 0x1ebfffffdf0U, 0x5c40000402dU, 0xffffff02fffffeb4U,
  0x3e6f00000200U, 0x3320fffffa98U, 0x38b00000216U, 0xfffffed70000162fU,
  0x6274685750745f54U, 0x4f59594e6a586362U, 0x7164645f5352524fU, 0x6c396c58576c634cU,
  0x675e53676a82615bU, 0x545a747057735633U, 0x6270683b7b416152U, 0x555360504d5a6879U,
  0x467b3a3c70533561U, 0x4b665f7f4a553284U, 0x2948735857545c5fU, 0x555852606a497e3fU,
  0x715d6b905e4c634dU, 0x5e743a5e475e5546U, 0x5144675a5f695166U, 0x68746b6f3c834b60U,
  0x634f59646a70635eU, 0x6d696a56596a7b67U, 0x715b60626a675b65U, 0x74625d56734e4f65U,
  0x515773614e4e5379U, 0x655a646669586461U, 0x665d5d6c6c5c5776U, 0x6260646d62535257U,
  0x68615484636e5f52U, 0x5b525f4e5f545760U, 0x5a6c616860ac5361U, 0x566365595b6a5572U,
  0x6851565f61746056U, 0x615e6e714e5e4e54U, 0x704c57607f8d616bU, 0x644b55756f6e6d51U,
  0x5d74624f465b5566U, 0x635c6656785d6260U, 0x5d6358695c605874U, 0x5b5d4e4a645b7555U,
  0x5a57444e5e455e6aU, 0x5d5764a066626663U, 0x5e6d6f6963607964U, 0x5f4d62576f6d5263U,
  0x775d6786655e596eU, 0x665152545e6a6e5cU, 0x626d5b5a65815e51U, 0x51546d635a604c69U,
  0x6d54577c5d7b5153U, 0x4f60546669536457U, 0x5c555f5f87744654U, 0x5f62676a7365615eU,
  0x57594747536a6b5fU, 0x70492d4b75425d7bU, 0x5e485c7073487056U, 0x4e603f4a406c854cU,
  0x604a4b6b536b6249U, 0x704e726260535d6cU, 0x42847a464a575e51U, 0x6d58497469425148U,
  0x67594a465b566d6dU, 0x49547b4a545e5c44U, 0x3b6755696d874a56U, 0x525b46417f51708eU,
  0x6a5226595a745c58U, 0x5557635f98674a5fU, 0x575f845f56662e53U, 0x4f545a7962654c57U,
  0x6b5b735f52586e5bU, 0x5f603f4067586b53U, 0x78614c5b61586156U, 0x51678a5b5a556474U,
  0x6a424c6e74375762U, 0x6158598372575f5fU, 0x6862584d736d6662U, 0x545d574861555f60U,
  0x585e596e1c53575bU, 0x5d4f6c634c545f61U, 0x70656869606969bcU, 0x6c45495c5c5b5760U,
  0x504f4e68695e586dU, 0x586b465254382166U, 0x6967566e614c7350U, 0x5e648c4c5d726654U,
  0x6e4f55734e6b736aU, 0x6a5f792e777d5662U, 0x5d565476534b4f4dU, 0x357d7b404d4b5266U,
  0x5f534a6f585c6c5aU, 0x6f6ea0523e654b3cU, 0x686f704e37925975U, 0x5d615c786e5c5567U,
  0x4c643a5b603f7b56U, 0x336f575955a3395dU, 0x53536b566a4c675fU, 0x486649677439474bU,
  0x5a8073376b456f88U, 0x6c6e7147735f7264U, 0x744a53813e5f7654U, 0x5d44744e5d4c5090U,
  0x506766914b315e85U, 0x3f52887f564a2b54U, 0x6b6852345c7c355bU, 0x674a5c62794d586eU,
  0x70465f34695a556aU, 0x61797b8361587960U, 0x5e57594d756d5459U, 0x525f5a56685f4e4cU,
  0x6e6564a363804674U, 0x3c89747b5e5b5551U, 0x644d43485e714e65U, 0x3b5d3e56337b5d48U,
  0x7b2c487b6c5e431bU, 0x628e6c514a655e53U, 0x2b597f4432835640U, 0x4f4f747337768554U,
  0x5a765b545b6e645fU, 0x565d707a4f655460U, 0x606452605e46695bU, 0x6e4a4a72677e6851U,
  0x5473815e78556d65U, 0x5f737f4e596c596cU, 0x5558626054626a48U, 0x6278566052527669U,
  0x56595e7457545c5aU, 0x616a636e6c63655bU, 0x6863655d5f5d5b68U, 0x59675c676f5f5859U,
  0x4d656f4f67415e75U, 0x575958635f5a7574U, 0x5d5d637e68656556U, 0x5e69565b555f7758U,
  0x54735f1b6b435157U, 0x815d675e5b2f3d48U, 0x3c4b795e493a5a67U, 0x5541686b8681b55eU,
  0x95632f706776704cU, 0x6346764f51625879U, 0x39445c5579565f5cU, 0x4b3854776776566cU,
  0x8870485a6b584b5aU, 0x18654a56464d3845U, 0x5d62596053766572U, 0x463d7272955c4948U,
  0x88316a5f6f3a6031U, 0x625f5962325c7474U, 0x4d5645529c416f82U, 0x4c6d6d623e647baaU,
  0x4849916c4d2d6765U, 0x5956704c91463a6aU, 0x725e5b4e5a5a554fU, 0x4c4f5a7b463c287eU,
  0x476b5e606d897735U, 0x6b483956365b605cU, 0x5c5c5b2f28478d5cU, 0x655054797966716aU,
  0x6e665b605c5c2a69U, 0x6b6a7f6741716269U, 0x63725d6a6352695cU, 0x4c306160656d9e56U,
  0x8460685e594d6e3cU, 0x5c4f56715a5e5674U, 0x6157597464524b6dU, 0x88565b6b6e67553dU,
  0x6d463c5d5d73557eU, 0x487c3d6f6640607cU, 0x61686b60595a625eU, 0x3d98424f49536777U,
  0x644d4345645d4c50U, 0x61557c73656e6281U, 0x62486a4e54463e45U, 0x6c738a6e57544d7dU,
  0x676ab35a4a327f63U, 0x80517b408663735eU, 0x505e565f69577747U, 0x36628a4f525b7e6dU,
  0x57556a478171523cU, 0x86594250575d6755U, 0x744329535a61514dU, 0x677b4f78715a4f73U,
  0x6c64884b558b4652U, 0x825954526a575577U, 0x6b5c48885e614e53U, 0x5a5d59354b5e5730U,
  0x573d86614a715955U, 0x7a4d705f5770506aU, 0x354d8653743f5aa9U, 0x575f606e5d53794bU,
  0x4b7b63555f50515fU, 0x62bd5b5657455d4fU, 0x5b6663515a69603fU, 0x5e55687863374c57U,
  0x5b5942604d3d584aU, 0x4d584566638e4a58U, 0x50586d6e4f4f5563U, 0x795d0b8083804f3aU,
  0x777c638789376878U, 0x6c61725d54778745U, 0x65666f665f5a5c8fU, 0x7867678661534687U,
  0x754d385a6c5b6a75U, 0x595e373c5b69705dU, 0x764551604a58624bU, 0x62685d5f3f545238U,
  0x38522e645f578365U, 0x7173193e6b535f6fU, 0x525e30225cc53a50U, 0x37816d56833c754aU,
  0x61276c3d5c435287U, 0x6d5c7732735d4936U, 0x6e75774a7d766d57U, 0x6f52717b64433e6fU,
  0x65614d55505e667aU, 0x485a66525f587754U, 0x625160635d5f5755U, 0x44535f5a56697762U,
  0x635b745b6e475b5fU, 0x7153605d59615d64U, 0x56515370655e6d58U, 0x626a5a48325c6e6aU,
  0x62664e4582527542U, 0x5c5d61644a606a74U, 0x4f585c486d5f7082U, 0x434871925b54475eU,
  0x607c4d6d4b83b35dU, 0x46606a6a71556a64U, 0x806645654d475c6aU, 0x4d61626778412958U,
  0x516662635a676a69U, 0x3f4d5357634c4e5bU, 0x5e58574d6257585fU, 0x475053686a564f5fU,
  0x6b543f66705c4670U, 0x595e7c926c635056U, 0x707d6c616469564fU, 0x6054554d596866b9U,
  0x61676171934d5763U, 0x5861714e746a5e57U, 0x515a5a5a64546137U, 0x4e57666f53685f5dU,
  0x614d4e5f5d645a4dU, 0x575d5470537f9258U, 0x5c6d586e4f65575dU, 0x605752695e666a46U,
  0x316f665e5b5a6452U, 0x6b5a594c74674e43U, 0x6254ab5250734451U, 0x6f598e63523d446eU,
  0x5c624855734a596bU, 0x70525f87544d6266U, 0x52464b59606f5e7bU, 0x7660606a6457584bU,
  0x754e612f4f4e4b56U, 0x2f6d655e6d516d6cU, 0x705942416d389f61U, 0x6056635c3e68563eU,
  0x904a425a474f864aU, 0x71636f4f6e6a6758U, 0x4a5c4b496f39354dU, 0x6b4e669359456506U,
  0x60654d3e5e4d676aU, 0x545344505e6e6d5fU, 0x4a69784748506d62U, 0x4b7775875e415a6aU,
  0x644d71625870626aU, 0x6c4d745667596b4eU, 0x296859744e653165U, 0x5f79534e555741a6U,
  0x4443466d43547a64U, 0x6855743b734b5482U, 0x62666c5355426840U, 0x6558544a3f4e4192U,
  0x474d45495f635d55U, 0x58626c5d6a555b74U, 0x825b5356706f5a94U, 0x5f5b5c67795f6c58U,
  0x4834529165767174U, 0x625250685e61657bU, 0x476e4a537b4e5c6dU, 0x5e3d68785553566bU,
  0x4b66798860596598U, 0x4e5f52c8504e6254U, 0x626c656b5d76785bU, 0x665e4e6c76584b95U,
  0x4e7f1b48cb846948U, 0x72485e586484287fU, 0xa24b3d7b8b747ceeU, 0x2152773784844e6aU,
  0x636e596d92527b5dU, 0x7472695d62628e3cU, 0x3d4a65592560a47bU, 0x6f7c316378684642U,
  0x4e4a635566645c50U, 0x59736b5a5b93674bU, 0x5470626a7142666aU, 0x554e5e667a84744fU,
  0x5f62535745776f57U, 0x5e296a786c645f72U, 0x737b43627c484c54U, 0x6025736c7f5f9776U,
  0x5b845b73746a4b5dU, 0x2c676572615f5e5eU, 0x4366695f676a516fU, 0x5f54586073706855U,
  0x614e6b6566525161U, 0x50604a6a5160625eU, 0x534a676e4e5b7650U, 0x7660606b7a54758cU,
  0x7f4a9c4167484659U, 0x5f4f73576a775d42U, 0x6a528a72546b6e70U, 0x505d675f654b564cU,
  0x3653612f3e79683eU, 0x6e61784f7754705dU, 0x553f5f5860617d6bU, 0x8472547c754b6157U,
  0x5b5753546756605bU, 0x58647b5463626f53U, 0x616361594c5e5e74U, 0x73555f5f64575965U,
  0x6b53615f56646558U, 0x656a563d565e575aU, 0x5d545a6253625257U, 0x545b57685d635e34U,
  0x59a760785d6e6a5aU, 0x7e554b606e7c617cU, 0x5d514c4583876146U, 0x4c635e634b644354U,
  0x636d546178726368U, 0x5f6259765f63633bU, 0x73704b536e5c6859U, 0x5c55754e75603398U,
  0x60996e5c65595766U, 0x72726262445c3f74U, 0x5a5d575f62566968U, 0x6667606739665358U,
  0x5b6c426581684776U, 0x5f6071745c494f42U, 0x6778552f59746348U, 0x614e4d51785a296bU,
  0x595f51696061665dU, 0x645a3d655e634461U, 0x5e704d6f624c5d5dU, 0x4d7463767163526aU,
  0x6b7c7e9968685958U, 0x5d686c636c53675eU, 0x6b69676e456d535bU, 0x4f68536c655f6a84U,
  0x5a3f876b44415a58U, 0x4c4f5c4f58515593U, 0x51404f385b67564cU, 0x51505763874c7355U,
  0x704f473473519e6bU, 0x5c6e60478c65675dU, 0x345e635e5e726059U, 0x445a4e5462837a7dU,
  0x76666662695c5d5fU, 0x6b5843524a50574bU, 0x5a4c672e6d58446cU, 0x5f4275816d755353U,
  0x4f6666854b5a6759U, 0x565d6b4254566851U, 0x6b625f87526c4166U, 0x4f5b5c4f436b844dU,
  0x8a6155664d7e6c4fU, 0x55546d505e4c6072U, 0x50566f7056735847U, 0x6d6c4c5767606d9bU,
  0x8b4e797c7165605aU, 0x646f7461435d5554U, 0x6e4f576169774d84U, 0x5a515f615c5d3c45U,
  0x64695664a25b6768U, 0x566453596858585bU, 0x5259596d5d5b5723U, 0x5666676c52697461U,
  0x5e5d5e626a6a565dU, 0x595f7762597f8b5eU, 0x6164526167576654U, 0x5f68665b6c646f63U,
  0x734a685046676076U, 0x28827d5176596471U, 0x895f4d7889785e4cU, 0x406e3d4b6e555c4aU,
  0x772e406075215062U, 0x936d84893c526674U, 0x4f716a2620676572U, 0x5b576e3b5767644dU,
  0x3933879182406492U, 0x4b2c5a705b723c84U, 0x5369516a5e74659aU, 0x46465d548e647481U,
  0x464e4c427a4b578cU, 0x5882503c94768873U, 0x6b2a6144698a2f68U, 0x6874396839445965U,
  0x414f48514f586b5bU, 0x5854935b5860635bU, 0x575e636d69366b4bU, 0x5658725b7e6d4c3dU,
  0x786e546b46375e5dU, 0x545499734e5a4d52U, 0x726d55744d957b70U, 0x633f53715166556bU,
  0x696b56854d4c6c6cU, 0x6153695c5f584758U, 0x6d5b676e538e4f51U, 0x456951656055505bU,
  0x805f52625f785e59U, 0x6b7d5a056766666bU, 0x495272573c693f59U, 0x596a566e535d564bU,
  0x5c50697871575761U, 0x655974764f667357U, 0x6c5f695962616d64U, 0x5c6a5b6c7f504c63U,
  0x437571506b365b73U, 0x5b5260655a4d5e83U, 0x5b5262616f6a6f56U, 0x5c6e6e5d5e5a764fU,
  0x814f528d636c6354U, 0x636a5462555a5366U, 0x5a64715061a5656bU, 0x735c57754f4d662bU,
  0x4851674e68886165U, 0x505d61663f575c47U, 0x5b58746086654c6dU, 0x7654697d7a6b565eU,
  0x2137513b4968584fU, 0x3c485151698d3477U, 0xd6565873917b6442U, 0x1c4c5d544859754fU,
  0x4665404c343f5354U, 0x6b2f5e2bc45f6930U, 0x2e997248363d3c42U, 0x6e5a515e49704e57U,
  0x3a484d32483a5464U, 0x6272ad4b3d443c86U, 0x893d157a12675d22U, 0x4560b14b9b556860U,
  0x709d2c4e70538546U, 0x8d817d4c6d314a8bU, 0xa317447298614f89U, 0x46475d8b4ca2445bU,
  0x715b62625b675b62U, 0x674f6c4f5d6e6064U, 0x6f61756072656a59U, 0x59565d5e505c5964U,
  0x6b516b8a56656756U, 0x616c4a615d57565fU, 0x705d5a73796a4072U, 0x5a5e5b61585d5a43U,
  0x4a5f585a633b70b0U, 0x445e76485451415fU, 0x695f53315b5d396dU, 0x6351855c724d643fU,
  0x4a692956526a657bU, 0x4d6e67595e487643U, 0x7869696956566655U, 0x4a6d606578625039U,
  0x3a38754752626166U, 0x59555d506a5f6677U, 0x4e6e72786b465457U, 0x575a4f4676567c71U,
  0x55664e3a66467756U, 0x775252935f685e60U, 0x6b7472524959667bU, 0x50565d476f4a4144U,
  0x6b724b495a645c4eU, 0x5d626c6b5d5d4560U, 0x717a6d5d647b6950U, 0x885f6c5e5b596059U,
  0x6e655f6f74536367U, 0x5e73625554654d41U, 0x96525d3a49485549U, 0x645565625c5e4059U,
  0x625b7e5346325c98U, 0x6854605666615b36U, 0x2e5f4a573a826834U, 0x7371287575789563U,
  0x495937425d5b5c48U, 0x44506f4360446366U, 0x6470816b7b547a4dU, 0x5a654cab5e5b7140U,
  0x4a5c4a6d68746d60U, 0x6f70474c6e6f8354U, 0x5e666c734c696966U, 0x548f8064733b825eU,
  0x51735c4e6f1c505dU, 0x6b743d4967596870U, 0x534f8462617b7054U, 0x605e7245716e634dU,
  0x7761a85847556c65U, 0x62593253693c6750U, 0x525c48665e696247U, 0x456a775849736057U,
  0x5762526b64766250U, 0x7a5f447b6b536052U, 0x6b3d62487b48526fU, 0x485453636d605f5bU,
  0x53526b5c736d6961U, 0x5d71546a68644455U, 0x714a706d804b6178U, 0x8d426d3f5c78845dU,
  0x627d3d5b4c874755U, 0x666e47735987646bU, 0x628d694a25675756U, 0x605f7b6d60516553U,
  0x9f8666695e4a7351U, 0x385a8d565355476dU, 0xa16f764ea2345268U, 0x564d3e57496b8c9dU,
  0x3f6142615f51685bU, 0x5d82745443756163U, 0x377a3d7067596640U, 0x377f698569665f87U,
  0x5d5b665675515f62U, 0x5456675c4f6f625fU, 0x5e59666a625c564dU, 0x5e6150496f566966U,
  0x6253454a584c695bU, 0x635358946b466363U, 0x5f6b6e4760607757U, 0x566064687364525bU,
  0x51675b635b317a56U, 0x6353735e7c5f7352U, 0x8f81563b6b44a252U, 0x7d796688414f354bU,
  0x647c6d425a137a84U, 0x626a5b7043445455U, 0x5c55526d4e744f51U, 0x7f57597c79414e33U,
  0x5e675f69a150595cU, 0x5f83685e5b54645bU, 0x6b6c6c5c5c616720U, 0x6c4e515b5b595e6cU,
  0x60475967655a5b65U, 0x58684b565989965aU, 0x6e5b59805b4f7b52U, 0x595a4357636e6454U,
  0x786c7545555a6b69U, 0x8a645d3c425b5e98U, 0x41514a3b811b7460U, 0x4257605b336e6e6cU,
  0x6562584c77576225U, 0x4673716b52616565U, 0x70833a6a4c643773U, 0x5343607c84634b60U,
  0x77645e5870514952U, 0x63826540595c5a4eU, 0x3f525871724a6971U, 0x56736b5c5a586477U,
  0x70565e61585f524fU, 0x4646505395636965U, 0x5354575f6e655a61U, 0x6b6277776b677141U,
  0x73634654643d457fU, 0x653f5762642b9246U, 0xcd646b9b5b37614bU, 0x586b68513e647a5aU,
  0x7945697c47438475U, 0x7685547e493b6070U, 0x3f33767e9f4f3149U, 0x3c424855746c8930U,
  0x60447b684c786162U, 0x5c3e385c6382676dU, 0x60808182474b6345U, 0x407a3d7b5b50465cU,
  0x5d47298d34526a71U, 0x575e48782f465639U, 0x9558bc517e6b4b50U, 0x4d482f795a742947U,
  0xc26b564f506c5a79U, 0x3b77463636636350U, 0x535e4b3fa5705843U, 0x534f31663557672aU,
  0x3a29804f6c33573dU, 0x4d5860415b485f56U, 0x28546e66485a4854U, 0x6e3e737b4c293739U,
  0x7e6d305b6e7d4f6eU, 0x35624c625b70456fU, 0x3e513b6e82766968U, 0x4e5b584b5076594eU,
  0x533e64385c525344U, 0x605258a15d545746U, 0x496a52756854856aU, 0x686d576d697e7a90U,
  0x66792a4e4055554dU, 0x686c416761515878U, 0x4a5f5e011b47772fU, 0x5a544cc9482b5d2bU,
  0x9045656369456f5aU, 0x5698653e835c6a41U, 0x7843642b5973646dU, 0x85685d5a40784f61U,
  0x2d7a32777c42433aU, 0x6577345786464960U, 0x4d6447545f728683U, 0x4b684a674a4b8476U,
  0x4c387557617b344cU, 0xd6933573606f5c77U, 0x50456e51565b4d56U, 0x6aa37a7d71987135U,
  0x4d615f4e5d695b46U, 0x895c65645b627e69U, 0x55497b80596e5655U, 0x6d766057573c514fU,
  0x7336784950585c6aU, 0x446b4f645a57544fU, 0x6c5d7c56556b6160U, 0x64565c5551535046U,
  0x2576569962727a50U, 0x6a5f38715e746981U, 0x664f755c5b6c6267U, 0x668b53525a4f7053U,
  0x5394677770aa576eU, 0x605d4442415d6571U, 0x5b71695457666667U, 0x73725d70566a5d94U,
  0x5c694535476e7569U, 0x605a794852593e77U, 0x884f6a60688b6545U, 0x7b49885a625c8f41U,
  0x2e6042434d547769U, 0x806b63395f5e4c56U, 0x185747626e65a568U, 0x6c6d5c55593c4067U,
  0x486650416456544aU, 0x5f4c64615b664358U, 0x48585b6e60535660U, 0x4768557b5e5e6c6dU,
  0x63606755496d6062U, 0x60476b3a56645d69U, 0x576660663e59515cU, 0x625d5475516b686cU,
  0x542d666dc053716bU, 0x3e734f6e72833848U, 0x69569045552883dbU, 0x6640654f516e4c83U,
  0x37634e734f603553U, 0x65586e567d6bb256U, 0x8a501b3f686b6e4cU, 0x4646744c8f2eb07aU,
  0x535c5f7c344b4971U, 0x5f5477545b696f54U, 0x60445e6e5c4e56b9U, 0x4159566f57684d58U,
  0x775451715d6d6149U, 0x6966575c4f393e71U, 0x4761475b4b5d4b60U, 0x666262625355734bU,
  0x5f545c535755515bU, 0x3b59607357583166U, 0x525e49676d5b535aU, 0x5a5f436a635e6f56U,
  0x6561603165375975U, 0x6961599956675e66U, 0x695e8a493b667d60U, 0x5e595757395f6c69U,
  0x846244475071775dU, 0x54624f185e52615fU, 0xb46a6a5b397d5259U, 0x4f5fc3634d476b79U,
  0x4e4d538c6d4f7d63U, 0x694691575c5f5c56U, 0x2a3567638f50762cU, 0x41445a60494a533bU,
  0x5c6b415e5e75585eU, 0x3f5c6e5e5b75547eU, 0x72635e4b5a9d6f55U, 0x444e44766e57525bU,
  0x604a8f8752516f73U, 0x5c64514d7166606bU, 0x63626e5d8f503c5cU, 0x5361605866483c73U,
  0x79863b4756442640U, 0x7c42686c55675267U, 0x6474a94e4a4e614bU, 0x426030af6d493431U,
  0x572d71975a559349U, 0x636151695e386951U, 0x4e498e72593f693cU, 0x33634a53717a8557U,
  0x6565616e2b5d6866U, 0x536959625059566aU, 0x535f5c69525562b2U, 0x56626e675768725fU,
  0x5c585d5d65655966U, 0x58587c655f4b406aU, 0x5b6d5256625d5b4dU, 0x516e676065616268U,
  0x566e55706459723fU, 0x796a397658456d66U, 0x4777665f4d716460U, 0x2c696f67515d5f56U,
  0x555c60a364646556U, 0x6b89694062606176U, 0x7a575a6f61677751U, 0x6861636e7060937fU,
  0x4b826654624b738dU, 0x16535c6b7ebe211aU, 0x805739407b8f5e51U, 0x6a6b4a4d5c66604bU,
  0x2c5a314b2d3d3461U, 0x62285931583c4135U, 0x66658b71585b6e43U, 0x5a3341656a4b3217U,
  0x2a574755545f4c69U, 0x6f68655b6d5f668eU, 0x7955795f574d6b5cU, 0x5d5c595a6a4a5f61U,
  0x5b7d7b716669633cU, 0x655f5c3b626d5265U, 0x61605e5b5c6c4553U, 0x5d4b6b4e7a593a5bU,
  0x715c2e4a766f505aU, 0x58716b5c4e594b59U, 0x5c674f515b546e72U, 0x6050606d44746169U,
  0x755a5ea56b78474cU, 0x69667f1f65685e6bU, 0x50562d787769466cU, 0x63796a6d457a5750U,
  0x31487939527f1b59U, 0x3f694e506ab4ffcaU, 0x686b5e5a6e594358U, 0x12318e445b6c3b59U,
  0xb165805d7329683aU, 0x55683b368d637932U, 0x5a8f365532652a3dU, 0x816864585b74694eU,
  0x70714a4d46755a33U, 0x635943767458457eU, 0x5f83406f4886544dU, 0x1d954a484d424278U,
  0x6346851f5b51595aU, 0x6b7e7b474b5a6377U, 0x4482645151726c61U, 0x4f6f509058577671U,
  0x6d52435352825f57U, 0x6e6854635a4c7847U, 0x5c43906c6363554eU, 0x495e426e684d654dU,
  0x6329854f651f5567U, 0x66547794475c4f5dU, 0x5465974c565c4b73U, 0x5f436b583450555bU,
  0x57b764596c5e577cU, 0x625b5e44695e485bU, 0x6c6248586d494c6eU, 0x5d507d5b48633a50U,
  0x5a5f596f5f6b5d7eU, 0x4267656d4a5b5f21U, 0x6b6a633d3b5e6355U, 0x6156555b67714c45U,
  0x5e6b4c4567675b38U, 0x60834a5b554f5f58U, 0x4e6e78451f525c6bU, 0x615a56676057744cU,
  0x406a453e49678749U, 0x677939734f56605bU, 0x3a5f6d5b6078aa54U, 0x596376545c3e602cU,
  0x2844553d6b4b3556U, 0x9d49443a5b5a403fU, 0x6b798a535f51325bU, 0x316c703e6b5a5270U,
  0x695b4e915645464dU, 0x5a3b507773375280U, 0x5462887f7f625974U, 0x645b487c62558d39U,
  0x3a77354b814a4d84U, 0x564b96595f4e5d5dU, 0x3d994f401d3b6396U, 0x653679518c78823bU,
  0x75685a46436e6581U, 0x6a74603c63757a7cU, 0x454b505884693a37U, 0x534b56576a475d68U,
  0x5370a2865b4d4b4dU, 0x43613f7962585f70U, 0x51626f636345715aU, 0x56593a514f5f444dU,
  0x863344726868703aU, 0x5164368e58656758U, 0x626b6e4b4759685eU, 0x6d50526755819744U,
  0x784c623d7a676c55U, 0x48657a5a73643c6bU, 0x6a8e73565f5a6472U, 0x665f7a8a364d519cU,
  0x5770715d683f4546U, 0x736b669773507b6eU, 0x35713f5e1d5e5a99U, 0x5b7c658499853443U,
  0x626f495b5e69605fU, 0x52626d7051574c5dU, 0x5d5e4b6370457172U, 0x714c467166876d60U,
  0x4e726e577854716cU, 0x4f707d435c707c6dU, 0x645f69755a6a6c4fU, 0x5a6a6f5c415b7d60U,
  0x5d5d5e574c65665dU, 0x6e56566066605766U, 0x66615f565b71634cU, 0x54635e6d695a574aU,
  0x5a6684646a586770U, 0x7254615a6561676dU, 0x555c5b706a5d6a68U, 0x606551515d5f6f8cU,
  0x6146655f5d686a55U, 0x5a5c585f53614c6aU, 0x5d6e545b51645d5aU, 0x474f5a6d76655b45U,
  0x5a546d7d56575f58U, 0x695a52666357547bU, 0x5362596a795c4f69U, 0x61625b6a685a839aU,
  0x5a6252227a605471U, 0x5d585677615d7d34U, 0x366060764b5e557bU, 0x8479335663646868U,
  0x5166522f465b4064U, 0x5086566062715a93U, 0x53555e746e6f7a4bU, 0x5f5c5a70476c6258U,
  0x654b497c815c416bU, 0x6c585c5d526e8771U, 0x6867515883756475U, 0x8041706655634156U,
  0x4f3e596c5a4f7559U, 0x5e70458878565d30U, 0x404f8a797765583dU, 0x6754514e6f6f8244U,
  0x3d82505077444b67U, 0x8a72604b665a6874U, 0x203e6c4c80516874U, 0x60735f53675a665eU,
  0x8c4f3f5350555a53U, 0x5b565d656c616d5aU, 0x7b4f664284605459U, 0x72556d6b6f643f9fU,
  0x504a547b4d6d7c46U, 0x813f63667c5f473fU, 0x917e7a705a517455U, 0x476b816568444857U,
  0x3f514c2c52316771U, 0x5823774d47615a5dU, 0x3d7f6d5e6379772dU, 0x5e7442706261908bU,
  0x6d506f455756465fU, 0x7067313c64865241U, 0x4b589c5a6fa15758U, 0x55887c5a43406932U,
  0x455a5e726a5f4e3bU, 0x6e6374443b506165U, 0x493865833b4f4a56U, 0x6d56696d6b49544aU,
  0x4e63625f4e4a4955U, 0x661d634e6d444950U, 0x57725860655e5858U, 0x5b5d7067564f5b60U,
  0x57534d574a4b584fU, 0x525a425c631d6c5dU, 0x5659746059505264U, 0x7157b97d55755344U,
  0x364b89676d465b68U, 0x7f432d3f82657254U, 0x8162477a735a4c71U, 0x487272388c6e6336U,
  0x585f3f476d37514eU, 0x706b424d544f6b6fU, 0x70577c5183697c55U, 0x70693c7b827b805dU,
  0xbb6652566762607aU, 0x986d4748665f7435U, 0x7441554964446863U, 0xa768664b18545c54U,
  0x6858274b524d7e5bU, 0x785d517734657680U, 0x455f8f6130355178U, 0x713e6c7189597b55U,
  0x5c5a5020471b4a4aU, 0x3a28595a964e424dU, 0x52813d66606fc24aU, 0x6475555664532439U,
  0x65506f5e3c4b7875U, 0x956957596a585128U, 0x533269449a414526U, 0x75673c47414c685eU,
  0x4b59454b616c9157U, 0x6b665b664a60488cU, 0x624c376872516d5cU, 0x5a514b716f134f46U,
  0x4649944f5e775463U, 0x49547b3a505a5a61U, 0x89738e656d554ccaU, 0x435c655269562c4fU,
  0x6d66667e58566669U, 0x695f584f6967645fU, 0x516f5d515e796161U, 0x5b5566625e5f4d68U,
  0x604f547f567d5d58U, 0x5a554f5f64605c59U, 0x6359666f8172505bU, 0x6269556c6f625765U,
  0x425e4f7f6a72645fU, 0x5f6068686563815eU, 0x6d55506c515e656fU, 0x677e426e6b5b3743U,
  0x5d7a5739628c6051U, 0x7566741c54626b63U, 0x5d5976564563614eU, 0x5a60507153686247U,
  0x556b6e3b52524080U, 0x4c5b6e635f66635aU, 0x656b466f6f447556U, 0x7d5855406a65696bU,
  0x7752684b4d2f5e71U, 0x6e4f44b6675b5564U, 0x6b5f7e707d657566U, 0x537554583d5d4863U,
  0x5e5e4e565672456fU, 0x626d937d575e784cU, 0x5750738f69754855U, 0x4c6e4549695a6962U,
  0x764a665463395650U, 0x6b75564248577173U, 0x6b5e7a6340616469U, 0x6a58616d5f74543bU,
  0x746a4469564d638cU, 0x3e535b745b5d6a2eU, 0x4c57502f4d435c5cU, 0x9e664d638552635fU,
  0x84774150787d4952U, 0x6253522f43605e58U, 0x663f6c665a542650U, 0x6b53536c564f4b6bU,
  0x5a6658536e59635eU, 0x64597b5e66627051U, 0x5d535f5a5664645dU, 0x6e4e5b6166565b67U,
  0x6863634f5b5c6565U, 0x5a6d6345505f6d59U, 0x5e575458505f5e57U, 0x5d5a7063595e5636U,
  0x716d515a708c5259U, 0x747c73757e7d7b44U, 0x63925d710d515577U, 0x336f7e4b6176467dU,
  0x677287595d1a4a6fU, 0x727d823d556d736eU, 0x6d50543f73858448U, 0x495d7176477c8860U,
  0x89534b895c6a5f69U, 0x687468494b695e3aU, 0x6c516368736d3560U, 0x597059803c805f5eU,
  0x50655d629c186570U, 0x55624d794e586870U, 0x5b62485b5455a151U, 0x625b68573c369134U,
  0x746e57524f726c4aU, 0x814a5669555f5f57U, 0x6e634f70504f655fU, 0x83827b5949776b5dU,
  0x5a8e52715c64605aU, 0x5a63784949795638U, 0x745f4e446a72594cU, 0x5763424b4c455a6fU,
  0x5e46458c6a5d4d70U, 0x707b55586c5d8e56U, 0x6a5f7b52636d576fU, 0x8c82595058394162U,
  0x56525c5e607a5e81U, 0x687842755a55685dU, 0x7556745e4e495a59U, 0x754f74437f685e3aU,
  0x4457485262695c53U, 0x595e864b58758e51U, 0x64656a69628a6066U, 0x8a557b5967376654U,
  0x67537255547d5d57U, 0x696156547e635b53U, 0x5e5558655a683f76U, 0x55545c787452385eU,
  0x54555858504a6967U, 0x4a55625a5e5b616bU, 0x486f454271728b56U, 0x455a4e5754615868U,
  0x45533d4a68645357U, 0x635536669665674dU, 0x64536a5458605366U, 0x616561636f745d60U,
  0x5f676b5d56495d57U, 0x4f61635f5f675251U, 0x47674e4f64576285U, 0x486167785865665bU,
  0x5b4d566164635552U, 0x70444a68594a515bU, 0x5b686050555a655eU, 0x595762736167734dU,
  0x484c4548606e5b56U, 0x795a224c50565e78U, 0x5c515f597353585dU, 0x4d5a62605c556e6aU,
  0x3e534a665c5f604eU, 0x4451334e5b555861U, 0x64597689506b4e72U, 0x89585f5f6b625b38U,
  0x5940646c475a2f68U, 0x6e67684c51666263U, 0x776558525a737444U, 0x4551958c3960606dU,
  0x5c5c56353e3e5852U, 0x42384f6f454c5869U, 0x5c5a457b8a7b6d47U, 0x8d5e5e8757916f21U,
  0x7177736365336647U, 0x40615d66655c5d60U, 0x5665516c5b765972U, 0x49854a77765c4a42U,
  0x6f39485e4b4d595fU, 0x8e6b31656f636654U, 0x655a764c5e53705cU, 0x515f616263587b7aU,
  0x6cb100002ce6U, 0xfffff2f1fffff606U, 0x7e0000010b5U, 0x2f2900003fe6U,
  0x1ab1000038cbU, 0x2387000016b2U, 0x4190000042e5U, 0x10d600000463U,
  0x3daa00000cf7U, 0xb1300005a6eU, 0xd1b00003db9U, 0x47efffffea40U,
  0x599c00000b55U, 0x1270000301aU, 0x1e7c00001fd8U, 0x80b500000ffbU,
  0x2fd70000526bU, 0xffffaca0ffffbe7aU, 0x1070ffffeec6U, 0x483400002be4U,
  0x2e33fffff88eU, 0x44d7fffff13dU, 0xfffff53800003b80U, 0xfffff73f000008d4U,
  0x79e000002d7U, 0x8600000386eU, 0x5d2c00000626U, 0x9b5fffff0d9U,
  0x1613000058f6U, 0x303100002facU, 0x25e7ffffff4bU, 0xffffe451fffff5d1U,
  0x28d90000265dU, 0x179c00000b4dU, 0xffffc32300001ab4U, 0x8892000017b8U,
  0x9f6200000be6U, 0xae3000017d9U, 0x215affffd8efU, 0x14350000387cU,
  0x4568000024d3U, 0x277b0000208dU, 0x1c8f00001d1cU, 0x7e83ffffe0b9U,
  0x20ae00002b9bU, 0x1d8000003437U, 0x44ba00000123U, 0x23c900006c38U,
  0x3a6200003ec0U, 0xfffffc8e00000ee1U, 0xdb3000005d9U, 0x723000006daU,
  0xe500001bc6U, 0x49c700002140U, 0xffffec1fffffdba3U, 0xffffff33000073c0U,
  0x132300000c72U, 0xffffd92f00001078U, 0x3e8f00006fb8U, 0xffffe38cffffe5b6U,
  0x12d000003f3U, 0x6647fffffdedU, 0x57cb00004a62U, 0x2a2800001b23U,
  0x60677f7b6169736aU, 0x90706c505f7e3562U, 0x9e62656f676e5b6dU, 0x5da7578c785c615cU,
  0x806a4a62827f766cU, 0x8264766a645c7c4fU, 0xce635a826d5a777cU, 0x5f576877706d5f5cU,
  0x5e74636568aa747bU, 0x66a15f6d646f785bU, 0x6c8b6560635a6067U, 0x62777a516575679cU,
  0x6f5c9a5d6c786b62U, 0x64b1768c5758386eU, 0x836ea4758f766067U, 0x527c70b153665b87U,
  0x64405f53276c5f34U, 0x4b5f864e5556675eU, 0x5280456c4a605aa8U, 0x52954a21a0675c34U,
  0x4b49d1496db24731U, 0xa76cbbd17a9f515eU, 0x718566bb555054b1U, 0x7f82b0485c692a50U,
  0x5a7548f74d6bc858U, 0x63b741863fb1af5dU, 0x55c46b5b7f5d4b6dU, 0x6565c46763824991U,
  0x7a60594c6590554cU, 0x5c92b3765b425147U, 0xb15b39b3dec35658U, 0x77a043219e3c7d8bU,
  0x626b6c74666c6c6dU, 0x676a69565f79af63U, 0x60626970676e5b69U, 0x639d8c8e6e58665eU,
  0x886c4764837c796fU, 0x8165736466556087U, 0x1675c7c835a7579U, 0x635567716f6c5d61U,
  0x5f786c5567376d64U, 0x6898646d6768715bU, 0x6f7c6160635f5e60U, 0x6575745363716b94U,
  0x6e5d509e65776a66U, 0x69786f8ca05e3e72U, 0x806b6a6f7d766090U, 0x54747157556c5a86U,
  0x6e4ed31966fc4b5dU, 0xf1d17cac6f559071U, 0x94876e8e5e5a677fU, 0x66532f9c83805a5bU,
  0x77467647e6d635dU, 0x84c76d51854bbe23U, 0x18855e68425a5d6cU, 0x90866d516443666bU,
  0x5584775c5b4966ecU, 0x63467d889a7c727bU, 0x675b507d6e5057adU, 0x5a4c5c5b50756e67U,
  0x5777b72a6c635391U, 0x576a8e9159817f57U, 0x6059ed62615f5a29U, 0x625f67c541726e6fU,
  0xbe374f53ba326341U, 0x192ba24790e66cd2U, 0x56a3b2a1d246509fU, 0x529b8015a1f55c5eU,
  0x59c240d289715432U, 0x6a4d7758ac517585U, 0x6fab5e472969445eU, 0x9ebf94404971a8cbU,
  0x5ca38a5854777c30U, 0x51597d96656e7084U, 0x4f705296c04d3e8cU, 0x4d5169557b969238U,
  0x4fc05c441552346cU, 0x5b6ba245599b7a50U, 0x605645a08f4d513cU, 0xff8ee867d955c627U,
  0x665426dd65184e68U, 0x4e5676aa7052516cU, 0x5a8064865d61647aU, 0x6658c2a477795c5dU,
  0xe873685d796f6860U, 0x814d6c547c4d28abU, 0xc37a626de05c656fU, 0x897f6d5469456864U,
  0x597f75615f916432U, 0x644e7c83997c6f79U, 0x675ac67a6c585a2cU, 0x6051606054706e67U,
  0x5d6e24dbdf666291U, 0x556f8093937c7d5aU, 0x615c1c5e63625fe1U, 0x4e605e323f766b6dU,
  0x5f5d8a636d73657eU, 0x80a0697971518358U, 0x6b676e5e666f6761U, 0x7c677294605b5784U,
  0x816d9c5b7158726eU, 0x6686697c686b7754U, 0x3e77635d6f6a6a69U, 0x6a556269687a7c5dU,
  0x5c5b877854646598U, 0x725d866a6d6b707cU, 0x6a4e566d5a5d7890U, 0x79705f8987697859U,
  0x64678e766b648573U, 0x6a8564776f676770U, 0x5e637f594b648c69U, 0x71535d6490766382U,
  0x885f4d4d9a5b2bc6U, 0x5e3b8276ae58595fU, 0x62957c7b6d5c5c6cU, 0x926363248f5c59acU,
  0x3a3c387e9164d56aU, 0x4853406e52e5636aU, 0x67836b42624ad956U, 0x7b8958c263df9e6fU,
  0x4f5791274c586051U, 0x5d6879724e676892U, 0x547152a05e5b624aU, 0x656a5eb6bd76aa51U,
  0x4f8c5b562d4f8e82U, 0x5b79884e5ca5ac82U, 0x57514a583549ad49U, 0x38506a7c4bcf6948U,
  0x605a60866d716778U, 0x726468777154635aU, 0x6d636f61666f6b63U, 0x7a6e74935e5f5b7cU,
  0x846f9c5f70556869U, 0x685d687d6d675f78U, 0x9c7865617d6d6670U, 0x6754656665747b62U,
  0x5e5d827659876848U, 0x74617f676f6b717aU, 0x70508c695c60796fU, 0x78705f897f687062U,
  0x65646484a6688073U, 0x68745e776e5f6670U, 0x6269735750628a83U, 0x72565e7e88735f80U,
  0x1a3f000000ccU, 0xffffff8bfffffd26U, 0xfffffe55000000aaU, 0x39400001973U,
  0x12e1000005f3U, 0xfffffd75fffff93aU, 0xfffffab9fffffbd6U, 0xfffffcfe00000035U,
  0x12e1fffff6abU, 0x893000019caU, 0xedfffff871U, 0xdbafffff1e7U,
  0x145f0000082bU, 0xfffff912fffff201U, 0xfffffc6900000c3fU, 0xe9d00000023U,
  0xfffffacb00001da8U, 0xfffffc26fffffd5aU, 0x1ba5000001bbU, 0xfffffde5000004edU,
  0x1a0fffffe70U, 0xfffffd2dfffff8d0U, 0xfffff779000000b8U, 0xffffff2800000959U,
  0x4fffffff5eU, 0xfffffe4200001aa7U, 0x12e1ffffffceU, 0xfffffb64fffff657U,
  0xfffff713000004dfU, 0x157efffff907U, 0xffffff3700000c56U, 0xfffff40bfffff1beU,
  0xfffff6b6000000efU, 0x13870000128cU, 0xffffffa9fffffc51U, 0x15b300000081U,
  0xfffffb43fffffa7aU, 0x1662fffffed3U, 0x864fffff856U, 0x1a7efffffc13U,
  0x1a3bffffffceU, 0x62500001429U, 0x822fffffc10U, 0x12e5fffff55fU,
  0xfffffd19000003d2U, 0xfffff684fffffa4bU, 0xffffff4c0000066dU, 0x13ba00001863U,
  0xc61000006b9U, 0x24000012a8U, 0xfffffeb5fffffcbaU, 0x18e0fffffd18U,
  0xfffffd8f00001af3U, 0xb4bfffffdecU, 0xfffff348fffffddcU, 0x16f6ffffee96U,
  0xffffffeafffffdd9U, 0xfffff444fffffe93U, 0xfffffd2bfffff928U, 0xffffffd200001385U,
  0x93b00000d58U, 0xfffffcfcfffffbb8U, 0xb4efffff886U, 0xfffff9290000130dU,
  0x9972496e41756963U, 0x65553b4755797a76U, 0x784c903a9ea55e6dU, 0x4f6754556d7d7655U,
  0x649473b955316355U, 0x3b7055788b4a7266U, 0x687a676b678a7770U, 0x7a634178615c6471U,
  0x75296f91756f6974U, 0x445a0a534b764b5fU, 0x6d68687c7e7b6653U, 0x5c99945e6d777768U,
  0x7252605c4f5e7b8bU, 0x8264616d6e523751U, 0x5d65616a484f534fU, 0x753a7a686e8f2475U,
  0x7d6c89846f606584U, 0x906461925b4e5456U, 0x7a45418a80508069U, 0x3d455d9544774a83U,
  0x95755135647e7878U, 0x81784f627c516d6aU, 0x6d717a68838c3866U, 0x3c567f70126157c3U,
  0x68506560664fb38aU, 0x53486b62a3756b99U, 0x6b71866573666b79U, 0x75a3436c89834880U,
  0x3964547d5f8e465bU, 0x68b04c5e64835b60U, 0x5ba99061456a536eU, 0x9883555d71788a67U,
  0x67766f63655b5155U, 0x7a574ea65880445bU, 0x4f9040409c4b7b62U, 0x5b5d97e65b5b6a4aU,
  0x6b7e70464c436a4fU, 0x645e9d6b66686960U, 0x74614536906a9f33U, 0x6c6857b18771296eU,
  0x8684835f633f6b6eU, 0x7078931e5f6a7f49U, 0x7e6567a1568f5696U, 0x6b779b3f773f225bU,
  0x4e825d5c615a5673U, 0x935b3c7a454796a1U, 0x757e56816749667aU, 0x7030766a445c6b85U,
  0x856859471658993cU, 0x7c51567673807e5fU, 0x736770927da3774bU, 0x677259a6267e1766U,
  0x658c7f7b345e5e2cU, 0x9e522e666aa4656dU, 0x526f6c476f1c5936U, 0x50563b5a899a545bU,
  0x7cae4279a1772d5eU, 0xae492a3966767a17U, 0x5a7350694f877561U, 0x5b827c3981924952U,
  0x9261656649769075U, 0x6f5b77506e6da866U, 0x74285e4d2e919766U, 0x5a6a4f4d6e7e587fU,
  0x657b86748e77727dU, 0x7367698197678068U, 0x8f55ab625c467623U, 0x9f3d4a668d8d5b97U,
  0x6a8e40784f6a7558U, 0x5d5c6daa76777781U, 0x734f986e797a6650U, 0xa94c705d57767c73U,
  0x627b525229745b69U, 0x4b3a585d8b5a6761U, 0x5dbf515e5b785557U, 0x863e5c4b816d6f6dU,
  0x8e6c705b5969914dU, 0x1b535f5d80616ba3U, 0x611a614bba3da08cU, 0x655d4e5474686a77U,
  0x874a373a58458573U, 0x7e70645e2380756cU, 0x62658c62513e8246U, 0x81836b6259545a73U,
  0x406b7d7c92636270U, 0x3053716349446360U, 0x5e6174706c457a7bU, 0x6c85805f6f79545fU,
  0x6c6074672e706035U, 0x7d7f51963c85694fU, 0x67734f6858586c6eU, 0x458b4d6589387166U,
  0x715f5c62726166a3U, 0x2f6658895b6f704aU, 0x8d693e556c6c8230U, 0x6649816269625247U,
  0x6461837d7676656bU, 0x7e765b8065596285U, 0x6558719389805e6eU, 0x80465f745d5a5f54U,
  0x6f755c736a846970U, 0x7f7436696d717074U, 0x72575e578ca1865dU, 0x85556f7072617c7dU,
  0x5d5b7f595d5d6d7bU, 0x75707c8350615f50U, 0x818b785475763666U, 0x546959505c7c5e78U,
  0x6674777c721d4360U, 0x5a5f636e6767675bU, 0x7677744e6c7f6e94U, 0x82759a6172944368U,
  0x66796b697c68868cU, 0x425b565f61649a98U, 0x4b425f2d78575d6cU, 0x719d68649f7c8b37U,
  0x926c56926f40574dU, 0x5247316c7e525d85U, 0x7d6e76724c6c2b7fU, 0x584893504f7d7b4fU,
  0x4b77704f58996a51U, 0xcb3524e893d486bU, 0x4856597f53617766U, 0x4d2e4b695e537463U,
  0x7c4a785572527652U, 0xa165476d487b5177U, 0x7f78976f5f558677U, 0x589f97657675736dU,
  0x6836816499537b6aU, 0x725d416c957d619dU, 0x566477926555821fU, 0x3465625270664544U,
  0x70815a9a58605a1cU, 0x7d82515670825d5cU, 0x6a4f5e57797c537fU, 0x6f648a62a3956263U,
  0x4073718f4a546161U, 0x3ea25936685f6281U, 0x5e668a805450535aU, 0x617c674a7f736576U,
  0x635f6869614e632aU, 0x658057705f7a8939U, 0x40746d6773784981U, 0x7f5e66696b694f6cU,
  0x3045627b27723b6cU, 0x6a81523c4361909aU, 0x8b5058657a407c34U, 0x78834e4e70b08053U,
  0x73678a794f997466U, 0x7d8f30ad504f636eU, 0x593a81506e70bb1dU, 0x70747272685d9a7fU,
  0x406b4e590a83617eU, 0x844b731d92ab5c32U, 0x8075847183466064U, 0x3d3e716b5b9c6f6cU,
  0x9c737578737b716bU, 0x5e61625b824b37a7U, 0x7c407b5e3e906368U, 0x665fc04d45836979U,
  0x636b3f6041685046U, 0x997154726c694269U, 0x636d7d3756304675U, 0x79922c7096427352U,
  0x5c8e846f36626f6cU, 0x365d809b5699564cU, 0x5964894280527332U, 0x74759a6281778a79U,
  0x626066626a38944dU, 0x6d643966635d8165U, 0x555d729b496e7942U, 0x4eb7da6f8c795a68U,
  0x543a84a1725a737fU, 0x6f7a806d67425b5fU, 0x5a9a4c584e527c54U, 0x575c8365583a6160U,
  0x6d6d6e7d91648984U, 0x62645d7063694f8aU, 0x606779774f688f62U, 0x6e6b665349a9716fU,
  0x57606f4149679970U, 0x72646b7c2f4f7165U, 0x6c78aa776aa17839U, 0x4a3d4675524c7790U,
  0x6d80497a635ea77bU, 0xac66657869869146U, 0x788e5c8053499e5eU, 0x7762566a4a49567aU,
  0x7ebb7164667e6b6aU, 0x6d5e7a556b647c7fU, 0x8c4b6175663b6b69U, 0x6c4e5c677168d25bU,
  0x479051503c4d5051U, 0x8544476caa896fbfU, 0x7238733c74386c73U, 0x5e4f4b607f496440U,
  0x516a855f7648685aU, 0x5c573a936a87647fU, 0x5782716d866cc490U, 0x68613a5a9a5847c7U,
  0x8856796f76676765U, 0x825267517487734cU, 0x63806439b4478f55U, 0x8959915a9a4b7e47U,
  0x913b485945558e86U, 0x4a695d546d3f6f51U, 0x7e8b517c4a477c46U, 0x62588b5556404d4dU,
  0x6b3d5b60607a7e69U, 0x72763e5d7ea8729aU, 0x52676d6b585d8968U, 0x769156523f3f656cU,
  0x74895a6c64486a37U, 0x669b8b676f4a5459U, 0x71718c6a76776a52U, 0x4e5e8a395d57505bU,
  0x7575586380746c51U, 0x6c6078696a463d52U, 0x7160974b7a567852U, 0x4158446263718d5bU,
  0x915e636b7364767bU, 0x73625d835a709e72U, 0x49677062817f535aU, 0x76627076853b4674U,
  0x385b7b8226676659U, 0x45705172c2668153U, 0x686b4b7452525781U, 0x7c5d604a4b865176U,
  0x655c3a8b6b226542U, 0x64788f6e5f6c6c58U, 0x735d78ba4a44614cU, 0x50668797456e7d65U,
  0x4a8050877a8b3877U, 0x6e8b938f4a6c5978U, 0x64567073876e5c63U, 0x67557c6175486d7cU,
  0xb4855a5e6187547dU, 0x7d6775425675878dU, 0x7c526b4f6239587eU, 0x846f7a5b41773c4cU,
  0x54665e517365617fU, 0x4a6c488da476558bU, 0x596976c45c4b6742U, 0x4f6c713b6c6150afU,
  0x59a18d856f3b353eU, 0x8376b96a4b585149U, 0x6e7455613e6d6342U, 0x734d62847d5d7167U,
  0x60535ca69551694fU, 0x454c6a7f75427d8fU, 0x7e547b6d5450356cU, 0x8670443477520170U,
  0x8c5473726f449974U, 0xb772875454586d4aU, 0x5f46695f785e7065U, 0x7075766f83674b72U,
  0x4d5c4e7444806875U, 0x7669819f73655d79U, 0x786944578f8b6596U, 0x867c7d707d92803bU,
  0x7f7f41735255576aU, 0x3967b47b57357d8fU, 0x5e5140718e877e3eU, 0x7e4f3c4d846d8373U,
  0x674a7aad596d7373U, 0x4d7b872f4e8545cbU, 0x60686868726d887fU, 0x6f75896e6d8e6b87U,
  0x1a6d9e795d6f8569U, 0x36527d8084737b76U, 0x967b73446c518e4bU, 0x6f91527851a3b880U,
  0x6c65538a64745f5fU, 0x606f3f438857605eU, 0x56ad58a86d64626dU, 0x698d799867517d7fU,
  0x5d82594d6b80465bU, 0x61b54e4c6c636c6dU, 0x648f796957585296U, 0x6692596a7c918965U,
  0x5c583d4d9f737077U, 0x565a906a48688680U, 0x8b89b36641849271U, 0x742d476f70625337U,
  0xa28f60526b564fa8U, 0x64626d8b5568615aU, 0x61485d8073774152U, 0x604b8d795473c394U,
  0x847e606265674c42U, 0x6b7c938b3c705f24U, 0x81724d54718e4a89U, 0x6391756662a5a86fU,
  0x83743a678584646bU, 0x57837c7b7d595a6cU, 0x5c6ea24e75716b4dU, 0x7cb7785862804361U,
  0x4a8d6b408e662457U, 0x718d655a816c498dU, 0x7b848c579c3d7574U, 0x735a7954615a875aU,
  0x90a8757a7c686597U, 0x8572977884855aafU, 0x8369757b61a1955bU, 0x604e5a674f836f8fU,
  0x4a8565673b745a80U, 0x6a549981527cc592U, 0x7f74595f4575689aU, 0x905a803a3b63a374U,
  0x6257559f7d506e6fU, 0x6e60557f52896e65U, 0x585d6a6177825b57U, 0x736b82795965786dU,
  0x6a704b5853c74f6fU, 0x5f7341917d6c7c6dU, 0x58785d635e846591U, 0x64738a7466398556U,
  0x6e4f4a44505b6e42U, 0x85689a7975617c6eU, 0x8c65517739557e67U, 0x7f6d5e6c654d5b64U,
  0x468950537d487f7dU, 0x5f376fbd76974787U, 0x556a6c257a79695bU, 0x338f5f5c5f646037U,
  0x3b74796465508b81U, 0x376a7a54624e545bU, 0x60608b774e70855bU, 0x63462d2d51998a5dU,
  0x647a5f6591464c66U, 0x818b48435488c2a2U, 0x4b5f6f6d5f69685aU, 0x43668893817c3c99U,
  0x4777443f41865585U, 0x7a7a55926060636cU, 0x50764253626d5e55U, 0x57a1767244765563U,
  0x666c55706e6a5267U, 0x4a4e698583774069U, 0x935e696c5b49705aU, 0x6762625a6c726a68U,
  0x94727a9253a37155U, 0x71a8657d745d7383U, 0x6445686c548b1e68U, 0x48717a7267765f88U,
  0x725747867543706cU, 0x49688080625f783bU, 0x7b4cb34a6a7a6a54U, 0x5762ab545a654748U,
  0x55755a5e4cb059a1U, 0x805a6d5c91756673U, 0xa87d8764898d8d48U, 0x766a7b687f86957cU,
  0x7d4f6852995e576fU, 0x633e36cd72544e4cU, 0x634e67796f448561U, 0x386a616d5b796f2bU,
  0x51805d63533b3b41U, 0x6b7d5c1b504f6e77U, 0x6f9359d56e474827U, 0x6554688a2c9588aaU,
  0x693c63a761489953U, 0x805aae594f847961U, 0x4162704464386556U, 0xd5a55fb287412985U,
  0x75506569387d3e5aU, 0x76803a5e63876d5eU, 0x256b56615d7c8060U, 0x47982365857e3b81U,
  0x6969505f717c7d5bU, 0x6c4f4b596a8a6bb2U, 0x5597454a647ca15eU, 0x825885727c5d6170U,
  0x626a58777b514b56U, 0x937e79484e6e6468U, 0x5d707f53719d927cU, 0x5c71df575c527fa1U,
  0x7d583c4968685465U, 0x5e62847e8bc96e65U, 0x47897255515d5d83U, 0x884f8762783ea86eU,
  0x66686265542f7a93U, 0x3968526d5169855cU, 0x488a61436b9d8d52U, 0x60457c7272a5477fU,
  0x58675a734c847e8cU, 0x666968765e887677U, 0x8986754f7d7a7d65U, 0x748980733f51655fU,
  0x77625c5d8d488b51U, 0x676b81b2955d665eU, 0x738a575d56516c9bU, 0x8e6d0b8ab58a845cU,
  0x7532728f47877c67U, 0x568a87525d837275U, 0x8481724284537573U, 0x815566a357542572U,
  0x7c5470776c345339U, 0x466f594d7b466e7cU, 0x589c71a23e3f806aU, 0x744d946b74607a74U,
  0x7f8f496c736a8a63U, 0x6a71276e6f745aa0U, 0x4e619f3e5b206477U, 0x6e4f9d69557b5956U,
  0x5f7a778d935e5c4cU, 0x4f697f6b8356605bU, 0x595f69655b3b6b81U, 0x824f495341676398U,
  0x7b4852898567556eU, 0x4a5c974f393c5679U, 0x4d43549a4969748eU, 0x7e4e676d63826c86U,
  0x643b5579695b9059U, 0x8e7255795e685a79U, 0x375c5784567a754cU, 0x83495492826d4b7eU,
  0x87723d7a3b5a3c71U, 0x4860364e705a8b4fU, 0x737e4f86aa80a359U, 0x83784c5e753a823cU,
  0x558453892b4e5361U, 0x84658356a14e6960U, 0x5882686f555b618eU, 0x465f7c7b5a3da9b5U,
  0x9da1854949758687U, 0x587d3f7084525571U, 0x6f5261a058495064U, 0x75836a5d36414c65U,
  0x4c575f545d99645aU, 0x69775c6b6670507dU, 0x308e4c5f506d5c49U, 0x7d794b4e8a8579b7U,
  0x7e5284616d598662U, 0x526273562d82476dU, 0x5d8d4b4a7c534178U, 0x4614738858423381U,
  0x98717d9d562f576bU, 0x714e597381707a97U, 0x695c3c824f565966U, 0x3e445288a74a7678U,
  0x4748967246567b67U, 0x6e4a66338c5b8680U, 0x656d5d7a9e795973U, 0x818c87537a606d61U,
  0x5a5887725f796c87U, 0x198a31586e737c51U, 0x906c92574f46748aU, 0x4b646b727c55658cU,
  0x70936e5d9f60784bU, 0x5d3966564d53705dU, 0x8d605f9d5d62796dU, 0x89515d8683826d43U,
  0x8d4679509f806c6bU, 0x47643a929c7e5784U, 0x716f74765a754185U, 0x6982643e87662256U,
  0x807a6254866f6e63U, 0x4a6286bf766d752dU, 0x6e5c686b6873754bU, 0xab74465d536e8c4aU,
  0x666c7f7536534661U, 0x87827b6482694a4aU, 0x82787f8451483070U, 0x6d2f7754727a8c62U,
  0x577763465c615141U, 0x6e92464b6a7c815fU, 0x7491673877414967U, 0x6d9a6f57ac4b555fU,
  0x5e81855a66503f5cU, 0x6f80686f62906a79U, 0x5d6c812c78776730U, 0x731f9c59694b6e47U,
  0x59786f587f797442U, 0xc4507156596abb62U, 0x79817e527e3f879bU, 0x712541a88171243eU,
  0x55783d2997694d6dU, 0x1c80419b74595224U, 0x327c513243398f5cU, 0x7b577d547b796f6eU,
  0x96816274b36f6191U, 0x5d67517d56735f7aU, 0x6636833d687a5680U, 0x7150588a3a573c4eU,
  0x7d726760634a8939U, 0x5c5767629c675e62U, 0x6e65496f5e2e4d87U, 0x123c6a685572676bU,
  0x5a646177986c416bU, 0x6f305655807c632fU, 0x776c4c529033cb78U, 0x49636c785da34c4eU,
  0x4952566663875c5dU, 0xa3845f62636f7263U, 0x75496c807a698860U, 0x786b5c5781945a95U,
  0x8c54795c7a3b5a6dU, 0x624f6265805f848bU, 0x49567777736d407bU, 0x81877145665c8772U,
  0x6b61208f988a3d79U, 0x7f285e546f7c566dU, 0x7f746c475d5b6e83U, 0x72697b7d6c595d61U,
  0x8f7d616363876550U, 0x555a4d6068899f98U, 0x5c662e6198547471U, 0x4860774d546e608fU,
  0x577f573f634068b6U, 0x6c58605946625c20U, 0x4c777c636c776576U, 0x4e6b535f609a455eU,
  0x6071976c56846170U, 0x9f5e3e5869408786U, 0x6b657452809a6552U, 0x7890596b73856180U,
  0x865c6f7e617c697aU, 0x418c7c6643738772U, 0x8b698f74ad734f78U, 0x6a4f78395c6a6d68U,
  0x4b587d8380917a6bU, 0x4d638b4463774375U, 0x536f95736b555468U, 0x4254687b67855965U,
  0x536e8c9059527a47U, 0x75575b6e6e9c4d4aU, 0x6c568e4073736a9cU, 0x64784e6268736e64U,
  0x7d613c479a4e8259U, 0x4f50666775677469U, 0x902e657b5c3f6a36U, 0x4842567c70715949U,
  0x4c66786e59558d47U, 0x8d7445618b735b70U, 0x5c715b71537d7151U, 0x458b6658503b5d97U,
  0x668c57546f71484aU, 0x4e6d5551968b5072U, 0x3b56735d88788c46U, 0x72487f6c5c417670U,
  0x7f5e5e5b464f825eU, 0x497c536b99617575U, 0x4076539b51bb4f3dU, 0x745aa5596b4e5489U,
  0x8076797865656a52U, 0x6c6c605d746d6274U, 0x636ca4726c5e5975U, 0x60746a656e624779U,
  0x6c8d7a837346746fU, 0x6055985b795d5e75U, 0x6c544a924d6c548cU, 0x7e619b847d714e5dU,
  0x4c3d6172546b555dU, 0x354f5a4f715e528bU, 0x805e65716c5d6070U, 0x6aa4455a62776a50U,
  0x5457605a63579170U, 0x6d6958646c4e7852U, 0x6099584f4b4a676fU, 0x54365c795e675059U,
  0x806b596e89596956U, 0x605f8a75769f6a4dU, 0x578157575555786bU, 0x78355d585348906cU,
  0x5d87714e637d7275U, 0x4e63736e5645746bU, 0x6b42776562847f5eU, 0xbc87adaf8d745a9eU,
  0x5074816c56724d71U, 0xa18d5448575f5f76U, 0x8571676f7366ac60U, 0x4187615f7252735bU,
  0x422c656870415648U, 0x776a655c5d61857fU, 0x3b855e6882316d4fU, 0x4c5a704b5d7f543fU,
  0x8a3e646b49876f60U, 0x90742960915e8757U, 0x5659827a85776283U, 0x6858a9635b5f905bU,
  0x77845c6f58692e5fU, 0x6750658a57667889U, 0x5d74527b967d8078U, 0x7075996970499257U,
  0x625a6889808c4078U, 0x71613d7988647a71U, 0x67a8477b4d555598U, 0x677a57977c436450U,
  0x4743535b76658934U, 0x5c7f605f5d6da063U, 0x5c777ca074994a66U, 0x737664a8884c7a7eU,
  0x5f646c709b857572U, 0x5b79748f61586778U, 0x9339796c562f7875U, 0x647d8e8659346e38U,
  0x5d872c9572440aa9U, 0x9f6b84554fa27686U, 0x5d4e73386158476dU, 0x675f548852995236U,
  0x613f7da85b555f68U, 0x6a706a92627f1c7fU, 0x4957688c556f8e61U, 0x60674a788260686bU,
  0x61605e6a7c888d38U, 0x7f54647a99578a46U, 0x2b954d6b775b4e60U, 0xbc81289c6c47975eU,
  0x6f5d5b6d5161527eU, 0x5181597c79577866U, 0x5e78625d97805e28U, 0x844f5f6574977364U,
  0x776659517269588aU, 0x6d6d7f957c6d5363U, 0x5c3d6e58636a5968U, 0x8b5370925b615e50U,
  0x5a5c824e80768277U, 0x8965755768656cb5U, 0x87765e888060654aU, 0x5c59659f7d357a78U,
  0x657f657b7053945dU, 0x5c745163655fa2a9U, 0x85635e5d5a2e295eU, 0x674f597a74634c92U,
  0x9c4746597a89586dU, 0x8585a3787b786866U, 0x5d913e7b7f65554dU, 0x5f3750915d486b64U,
  0x77663d4588943b3fU, 0xdf87558a855e7861U, 0x64646b0f87625880U, 0x877b2e3770778a7cU,
  0x5c317d54a1705050U, 0x7b619b99916e577bU, 0x6f9c7f9a7d637b59U, 0x812e508060752a4aU,
  0x85448e9b64595a31U, 0x2969815261a78ec4U, 0x2ba560615c584665U, 0x6e7762586d699d8aU,
  0x4e64665941656c5dU, 0x424a5c698b99915cU, 0x68636f528c7f7a88U, 0x5962524e828c6d6aU,
  0x7a738179628a4b40U, 0x784e7d62a0a74b54U, 0x526f5e7849847d4fU, 0x5676686e60487474U,
  0x594f63427b9a5272U, 0xa765a6709f687144U, 0x7a855b9f727d9071U, 0x58577d805f873e47U,
  0x4c42626755987968U, 0xa27c785b6a657d8cU, 0x277f7762494c586aU, 0x805a7c404b6c4e74U,
  0x487160606e4f534cU, 0x694e805f5e749840U, 0x7d8c596e5f807890U, 0x5c535e6c776ba052U,
  0x63696f6771497689U, 0x584b706f53705b59U, 0x5c8d7b766d606887U, 0x786b3f5d65686851U,
  0x725072536a8c546dU, 0x6f506f4c8b5f6988U, 0x7f69516e6d645761U, 0x7a5975823e717150U,
  0x515f62525487854dU, 0x8251866f78705d68U, 0x9a73618b565c576fU, 0x62545e544a59626aU,
  0x8f5a745fa1935559U, 0x8d798365456d8377U, 0x87516f4faa7c7788U, 0x4a7162731c586234U,
  0x529f684c4f685f5cU, 0x7c7968784c6d7e8eU, 0x746c67559d4c8a65U, 0x7043986f4c775c90U,
  0x25629b676a806566U, 0x816c4446b6907160U, 0x48456a572973185dU, 0x866c9b786c2a4f86U,
  0x4c7444777d7a545aU, 0x67779a617e5d868eU, 0xb7934a815e886d74U, 0x6b71997850ae7e7eU,
  0x968f6a72647c746dU, 0x938f616d888a5f66U, 0x59615c4c53516f5fU, 0x3b666c65645d6241U,
  0x6657833f655dca69U, 0x47997d5661605e45U, 0x6b84559b7b40836eU, 0x4342916f4381747aU,
  0x6256406a595c736dU, 0x33315f5855795774U, 0x5a6497628075785fU, 0x7c4f87674f58475dU,
  0x667853748f375d72U, 0x4e4a73904e60538aU, 0x768647775b7a476aU, 0x916081758b7a927aU,
  0x683d5e6450678330U, 0x6e3c685c8d725e91U, 0x5a793a7e9c8c6b3bU, 0x614e4a533e5b6aa8U,
  0x745f86943b568465U, 0x4d84504e7e907379U, 0x635a35c07e426c84U, 0x63476aa05d495b93U,
  0x6b64a13345553860U, 0x4d4c69715860513bU, 0x7178878489494a55U, 0x47719e5a607e6d6eU,
  0x69a052544b7944a5U, 0x886b6164626d5d80U, 0x75496c844e548a68U, 0x7850674e62726076U,
  0x9c41615e7b642b4cU, 0x6e503d6159994f7aU, 0x5267918c95b32f8eU, 0x2c757f71689a3f77U,
  0x4e78654c6451a14eU, 0x445f8c826559754eU, 0x935e9c955d908f7cU, 0x423f4b765d6e5d60U,
  0x32411b6b5b5f4b52U, 0x8b564c2e71728279U, 0x793f5d557774636fU, 0x8f21558a6552573dU,
  0x8b4b8f9032598365U, 0x564f7c535f617245U, 0x88855b8e68404f62U, 0x74825d6662564d44U,
  0x869271556f7f6941U, 0x815b365ea45f8732U, 0x7667477d7e657077U, 0x5750684459485636U,
  0x927b7aa26d794f61U, 0x585244425eba7971U, 0x4d4e495388656956U, 0x80c86d67716e5397U,
  0x924d50617074735bU, 0x57550d5b59797e93U, 0x6c9e50523b785f65U, 0x6b5c6c6c726c7565U,
  0x7fa97282596d5b64U, 0x566b7262626c774cU, 0x648f876192747673U, 0x72557570657aab4dU,
  0x732b6da2586b5451U, 0x6c71a66a1f6e506bU, 0x7052407fb0624b6aU, 0x566c84695782898bU,
  0x5d8054584a60564fU, 0x47623b3b63897575U, 0x5366745675426e6eU, 0x4d737961892a7690U,
  0x70547d82475f3996U, 0x7e7030ad7d8b4b8dU, 0x668965564d3b5970U, 0x8410938e7148104eU,
  0x3f816e60527c505cU, 0x9e54513067354780U, 0x79414e5b63a7c177U, 0x758186706176827dU,
  0x6772846299768687U, 0x70628a775b607987U, 0xab5a6265717f4773U, 0x648273688cad5478U,
  0x434f6671762a7d72U, 0x6a5c81668d7d6969U, 0x786760487c816c43U, 0x546d874a514c3d59U,
  0x894657435a834f66U, 0x5b5f3f4a8d595077U, 0x7281623c2d482a67U, 0x545444566f683e6dU,
  0x7e65585d5f7d5256U, 0x9f5b695ea858799bU, 0x2546523f69787b7fU, 0x808656726e4b4e50U,
  0x566c717b4e5d5e9eU, 0x7b71656b4c5460a5U, 0x6a3671746f763b68U, 0x9d64478a2f568c50U,
  0x6a493b8b45195978U, 0x5068699e724e7473U, 0x73767a9c772d5660U, 0x636a429466709f62U,
  0x616975b063687780U, 0x7a458b94417c694bU, 0x717b704991766e4eU, 0x4e7a477f6731544dU,
  0x7e1b7b79826c586dU, 0x63516168612c8662U, 0x8c70657c788a9d76U, 0x9e7c825a678d576bU,
  0x7d624194428b3d71U, 0x77679476586e7b5fU, 0x7c616b7f9050664cU, 0x536893568c4b535aU,
  0x86606468619e8f48U, 0x7d5c537782937283U, 0x726a708b81b96a57U, 0x653923778045876eU,
  0x94815746527c6195U, 0x5a794c79b5688d32U, 0x8e3d5e8ca5775f9bU, 0x6a877e5c6b5b8175U,
  0x2b35877c667e7d59U, 0x6362684b835e6d5bU, 0x49957e98497e804eU, 0x928f7c7456906f63U,
  0x6d6e6e764a706e5cU, 0x5b885d5997905d5aU, 0x5348346d62496966U, 0x64a495628b735f80U,
  0x649f679095584445U, 0x796091382dab5b57U, 0x66466c5a5973624bU, 0x73593ba26b4e49a4U,
  0x78636f647d6e5d6dU, 0x3e735a5658976f6dU, 0x5d5e4f9785895b8aU, 0x5e647c849c438a80U,
  0x6a3e5b747b8c674bU, 0x2e686f4b50a89136U, 0x435b646a7d8c6067U, 0x8f62578864593c61U,
  0x5469726d96745566U, 0x515a97705c88937aU, 0x7083798dc86860a7U, 0x6a3e565f585a505dU,
  0x65508369455d4a4cU, 0x407362b299755557U, 0x7b546a31694f6769U, 0x6f47688323868c7fU,
  0x4d63345541985772U, 0x91c37d496d7472a2U, 0x867e66602e764b61U, 0x674959425c4b6c6fU,
  0x6a624d4e3d9a2c7bU, 0xb4555c8b6472425dU, 0x78736f6e405f7c63U, 0x54618d5288605b6fU,
  0x2d99725e5566674aU, 0x6848a06d6a546b52U, 0x72676e386e731f5dU, 0x654f5d3d5060775eU,
  0x59647f63738a638cU, 0x726756736b43634aU, 0x6e6a62716f7b639bU, 0x787257635166768bU,
  0x67709492a76f7171U, 0x41659b3f6d729a9dU, 0x563e703aba624468U, 0x854a72707a6c2f59U,
  0x9b85454f546140a5U, 0x82604e367a584377U, 0xbf3155795e7d8776U, 0x5657825f42b17447U,
  0x82598d724c5f616fU, 0x69654660803e643aU, 0x476f745d6f528a3bU, 0x64a4634f7d5b8f8eU,
  0x78867a9066735351U, 0x4a69675182656973U, 0x68553c4160716786U, 0x346155856f586671U,
  0x603d6d5f4a695282U, 0x2d84766476686543U, 0x5a6a6e5852744f70U, 0x4d576b4d6185678bU,
  0x7a806c6873666a58U, 0x81775e6c5381837cU, 0x61777e63397d608bU, 0x746a9c6a7e845e97U,
  0x5e6d775d77618c69U, 0x556856828f6e684fU, 0x745d605256645e76U, 0x7641594c5a555590U,
  0x6c5e417261626072U, 0x397855726155695dU, 0x6c5f604b58648054U, 0x8f8f5f735a79488bU,
  0x594d4b615668425eU, 0x55a4506962598476U, 0x6b76806a7e7f6559U, 0x739a848762596d8cU,
  0x595176776088765fU, 0x6d6c544a73435e82U, 0x3b79685e6b6c8777U, 0x7f79435d506d6987U,
  0xb73594695f5d1b75U, 0x5d53985c65726559U, 0x655548755278577aU, 0x884b6a805d5d916bU,
  0x60525979433a446bU, 0x716274755a887a7dU, 0x7d6c946a513b465aU, 0x7896ba7666334d57U,
  0x666256544b53a077U, 0x7a557354768371b7U, 0x71835f9a4d843b5fU, 0x7c6c7f5c75525456U,
  0x885c665a46894960U, 0x99627b7d706b5f54U, 0x9b8e5f428d844882U, 0x6e9b816d7c5f5452U,
  0x955668425d5d4b35U, 0x77746d6f6e397357U, 0x76676a606a408071U, 0x3d55476257559874U,
  0x6cad5a496b4b6b66U, 0x5c96488967634956U, 0x51554e767c676166U, 0x6f819c634a30946bU,
  0x555d7f82666b834eU, 0x355d6a47828f8952U, 0x59809c5e73579948U, 0x642a69a18e585b79U,
  0x476d4763625d4645U, 0x907d553b7b705e84U, 0x6862693d5a655569U, 0x6192b65e9b445c7eU,
  0x6522767c27676a78U, 0x7b7a797a869f5e74U, 0x4b5a6f784884462aU, 0x6c54754c4e98649bU,
  0x628739821b9f5365U, 0x6f73932b4e86443eU, 0x672773a283c33470U, 0x45419f564c5f1a75U,
  0x2399476c746d3f87U, 0x5d3e634495366f7cU, 0x4e7b75717e6b846dU, 0x977e5a2c5e673b6cU,
  0x3472536b768d7498U, 0x7b856e434e697c7dU, 0x6648686859357882U, 0x8069588065966774U,
  0x3f4551354a697963U, 0x5b37949859776735U, 0x5b5d847e7b7f6791U, 0x4770887ea1685c73U,
  0x656e826d7d775866U, 0x783b7a7b26827e84U, 0x7370607065817e4aU, 0x8660747c765c6963U,
  0x6875638762764945U, 0x5968a395748e6d62U, 0x8f94504e87488d7eU, 0x5f9168728c656873U,
  0x656988813d835e64U, 0x6f6c805866419289U, 0x6a596b696351915eU, 0x414e9a7968634c60U,
  0x785b55576e664492U, 0x5c459c4d65506e40U, 0x59565d516c76556cU, 0x34b57a4c477da92cU,
  0x593c826e61567d4fU, 0x426554554f616968U, 0x685f9a5c5b728472U, 0x8843406e71535348U,
  0x8a60763999868c6aU, 0x406b53599b967977U, 0x66816e82887d5680U, 0x5880584f6374ac48U,
  0x5f6f5c6a3f94636dU, 0xb751565e575e686fU, 0x88514577a77c6258U, 0x9c6172774c427e5cU,
  0x4055423869627b5eU, 0x805d724b3e505593U, 0x5971b18466577e48U, 0x63875d62486d7460U,
  0x8543257c5c586473U, 0x65656b6f91527788U, 0x68533f538a8b6987U, 0x6f7c58596b717b53U,
  0x833a3271695e6c53U, 0x5346674d2d6974a5U, 0x5f4b6b536ea1485eU, 0x7c6f5940766e5060U,
  0x9f68685454475939U, 0xa269348a59804d42U, 0x4f55875a6e77293bU, 0x6972856e99634850U,
  0x94585c6477966d6eU, 0x5b6d716553706d69U, 0x1d527c6697514c53U, 0x3a57be9955585967U,
  0x7e62498b67597264U, 0x64645c6d50539c79U, 0x696160616973653aU, 0x425a74793d625d97U,
  0x7c3f6762595d9c5cU, 0x72534e6d3b996e6dU, 0x5f7a685c51675d34U, 0x806e74697e30596eU,
  0x4d565c4d5c7d634bU, 0x704a6462c2547071U, 0x5d73465e4883666dU, 0x8d8c5d34c3665b6fU,
  0xb34e67628a745e6eU, 0x727950786a726897U, 0x6d6a596d8971627fU, 0x8d494e5c48704a63U,
  0x4a2f5c4e405a7772U, 0x4f5656726e62654dU, 0x6d68619a716f574fU, 0x4d57283e816d5263U,
  0x3ba15b4b7f6d696fU, 0x75636d7c71607759U, 0x53625b4ea556595dU, 0x714c6555755d8c70U,
  0x4d6556616e525f51U, 0x3d566b636b5649c6U, 0x7d99467c5f874572U, 0x7f7799607bba718eU,
  0x546170798a568551U, 0xac8328764d8d55a8U, 0x6f644c82486c5856U, 0x5b60686e465d3b7dU,
  0x73545d468a9c9664U, 0x366e40776d668691U, 0x735b70299d8b5072U, 0x3e5a4872b26f4c86U,
  0x9b75929e8d594b77U, 0x51616e83785b596fU, 0x528b6a755c235672U, 0x3e857669bd874665U,
  0x314a647b8aac8146U, 0xaf6d6791714c4259U, 0x6144623b79534160U, 0x5f5e785563286933U,
  0x60a073776965936aU, 0x5f6d765b52566465U, 0x68a1874c6285776cU, 0x828d6d91858b6a8fU,
  0x595860886c7f5d79U, 0x4d7e6766415d6c61U, 0x709c6c575fc33072U, 0x51cc8f9574938067U,
  0x753f6f695c616f7aU, 0x86647098617e4d5cU, 0x577e886a5194926bU, 0x696f4c704e83696dU,
  0x8a40685574496c48U, 0x82655e756a908d6eU, 0x4b706a5876655772U, 0x45705b756063a037U,
  0x3b5c2347464f8174U, 0x637f65496888705cU, 0x65694f7d61426f78U, 0x55666c685776886fU,
  0x556a8685756e4a62U, 0x5e685a7d64a0445bU, 0x564f7e615e6e8b59U, 0x4b5d68646a575174U,
  0x8c6479a1566a5655U, 0x5e57617b6d659079U, 0x9556649a356b846aU, 0x523c585e64596d6cU,
  0x626d5e7e807a518eU, 0x6a5f663f5e678070U, 0x7c6c655a70805322U, 0x62659c645a416969U,
  0x8c61655666658e78U, 0x5d7363827069507fU, 0x715c5d7473833c48U, 0x8e4c6548788b6c98U,
  0x595549545a9e8053U, 0x725b4f786b5d6470U, 0x71417c5e5c95957aU, 0x6b817764458b9980U,
  0x92508f457c556655U, 0x89794e6250467285U, 0x767a65675188616dU, 0x883e6381466a4276U,
  0x718665666d3d5f68U, 0x825886586c424381U, 0x946c616158515d66U, 0x63566c6b5d735286U,
  0x7e8a6d66fd609d54U, 0x7d79a45946a36993U, 0x856098aa40703e5aU, 0x793e4d5281687c6eU,
  0x4494766c4ea2b66fU, 0x8f535979885b3e53U, 0x5c617a6f71509969U, 0x7b73705b7a494f59U,
  0x927f8e655380715fU, 0x82797c59828130b9U, 0x8b69544e80477b62U, 0x8c65703082393c5bU,
  0x41844e5f6d56395fU, 0x2d5e2b587b5b847bU, 0x813d456089867667U, 0x8d465c467d67a248U,
  0x7548645173574a41U, 0x613a916f856d7140U, 0x7b436e9991857468U, 0x468166673aa8627eU,
  0x789c68853f5d514fU, 0x736589803c7b6863U, 0x53474e855a685566U, 0x714c25733a559466U,
  0x495c69615c795e66U, 0x5c5c496b93586e56U, 0x4c4f5b6351a37b69U, 0x385e904e6680a355U,
  0x4ca05f63438a7957U, 0x7d4f55528783584aU, 0x3a7771a9957e5667U, 0x3e8493627567917bU,
  0x84589058823f7cc7U, 0x5c52566939956379U, 0x4a806f6f6e68a781U, 0x6b5a614570576126U,
  0x767c6665716a7e9eU, 0x984662826a844f61U, 0x51662e6d6f54657eU, 0x618853215a4d8d54U,
  0x71644b467e5b935eU, 0x92675c55858c4a8fU, 0x5b514a77a2414951U, 0x90843030869b397bU,
  0x7872645c58bbb583U, 0x6a74899c4839575dU, 0x58707b4d605d5c88U, 0x6674705686549058U,
  0xa14e6565997f7ba4U, 0x70677964296f6349U, 0x8a4e8255714e7651U, 0x273c45605e592e5dU,
  0x77904b9b65876675U, 0x736030444a866aa9U, 0x5975856b7392425cU, 0x384470882a5e5895U,
  0x784ca3804c65ad4aU, 0x918e594664ac8965U, 0x52915225545f759bU, 0x9a814c60623d5e4fU,
  0x384b3685559a6043U, 0x668b6f443d328281U, 0x51556091755a5953U, 0x9c8e329682633e92U,
  0x6d8a7a8f41515089U, 0x60735f585f3d783dU, 0x7a56795c754f6780U, 0x734e6b62387c8858U,
  0x7e565b496f5b3f66U, 0x62824c536b81756cU, 0x5a638c627157455fU, 0x5664723e6e9c5e8aU,
  0x75694068518bb183U, 0x5d619d59697e6e2dU, 0x598c9a8e43814e68U, 0x71303358594d8266U,
  0x935fa18367536066U, 0x6e76725f79546153U, 0x9b6a89755082578aU, 0x5a84685669545e39U,
  0x4f6274975f854b55U, 0x4f5561387e815a5eU, 0x54764c6158927d59U, 0x586746748e569e7aU,
  0x606a4e79a255665aU, 0x7a8bbb6f1a696a62U, 0x8a55588757553d60U, 0x4c723c6c715d6e7fU,
  0x5b70727b655e8281U, 0x3e42715b4e615c33U, 0x7b58896f704a7a42U, 0x5c7f887b637b8054U,
  0x818b75655f777674U, 0x746043545d456288U, 0x6f5b65386a62837bU, 0x768c6a725f63774aU,
  0x5a413345725faa8dU, 0x7a5d1f516be97684U, 0x5f3c6c774e508663U, 0x522661594d887442U,
  0x3da343606b563d87U, 0x9561994e6f84534fU, 0x4b63564b6f748a6aU, 0xa44a5c62636aac84U,
  0x90607979646e6d54U, 0x6881c160603e6c6aU, 0x558363412f4b335dU, 0x7e5b9466436b414bU,
  0x917b727e5e6164a2U, 0x9c5646727a5e796fU, 0x6e4c4b73596d7f43U, 0x805f5b74766a7f5cU,
  0x6a958b84986b5f49U, 0x7e7640773e637589U, 0x526850427b6b7f51U, 0x6c935c647d5ea155U,
  0x6d776f687864726eU, 0x7a66837a6e51778cU, 0x74896e6e7f4d5e6cU, 0x5144626d498c6263U,
  0x507198736370748fU, 0x83733a705b555f4aU, 0x6a7468b8c226906bU, 0x2c615b73547a8960U,
  0x5647634c7c7c6d90U, 0x887d8c4a559f4986U, 0x7a2a622877b2868bU, 0x734d694f57444e3eU,
  0x3f574b4e5f6c935aU, 0x417085a4666b5353U, 0x68396f4abd1f9252U, 0x55574978465d7f8aU,
  0x67b73a648182878fU, 0x937f82a041515f5cU, 0x416236ba50607729U, 0x5b7d235449856e50U,
  0x6f7a58687b6a8a4bU, 0x89386a5e59908673U, 0x56758749456f5b64U, 0x7f719b2a66835265U,
  0x6731686f60605350U, 0x70564c687084886cU, 0x5699573e3c586d4fU, 0x70aad5499e6e4f62U,
  0x696a91637a696866U, 0x7e4167556b685073U, 0x7c686f5e78677160U, 0x67693f7267656a68U,
  0x505f6b696f746969U, 0x665d616d657b6d6eU, 0x5b6a6c5d5b66736bU, 0x62686a64616a6a77U,
  0x6b6a6d6d686e697cU, 0x6b6c6867526c6867U, 0x63646b696c6a718dU, 0x6a62676565686a6cU,
  0x68674c9d806f615eU, 0x76626a6352686669U, 0x6e67886b6c606253U, 0x776a6c737c6d706eU,
  0x8884559a7d6f895bU, 0x585aa97b7d638551U, 0x5070508c6b758047U, 0x71637f4b7d678673U,
  0x628468679f1f4d88U, 0x6e56804c8d767973U, 0x664a46814e185764U, 0x5a49389383488d6aU,
  0x4136806688905990U, 0x786353368e696d5bU, 0x775c597a7293687bU, 0x7c9b84667481545dU,
  0x7e6181765b7f645fU, 0x6c6d835a65599197U, 0x8c155a5da4918465U, 0x9451616885796b63U,
  0x727c626180654f67U, 0x4f6191524a4c5b7fU, 0x7949a97fa24a4d6eU, 0x8b66625a615d555aU,
  0x62676e6d577d6340U, 0x89738c5b7c685a68U, 0x6c64834e5b4b7a7cU, 0x644457733c58706dU,
  0x4077833e645f6258U, 0x873b475b593c7962U, 0x7b5e6e776b554754U, 0x88759b5b7a46677dU,
  0x6a5c625c535d505dU, 0x485c5d8a715e6063U, 0x6e756da25d796f5dU, 0x853f5e6d877c6695U,
  0x696c596f6b666b65U, 0x6f8f6a686a69866aU, 0x36656b6d6c6d6965U, 0x676b7d696870696eU,
  0x73666569676a686cU, 0x6d7e666c6e6b7656U, 0x82706e6c6070666bU, 0x696e676c68656b70U,
  0x68676c60704b6962U, 0x6c63696a626c6d6aU, 0x6f6657706771665aU, 0x63696a6863686369U,
  0x6b6689544d6d6c66U, 0x695d6b699e71696cU, 0x676d676a6867687aU, 0x716c6f546f686b62U,
  0x6b5a6f647d705857U, 0x5c966970786269acU, 0x6f65c05b4a4b5d62U, 0x50556d6e527b6f6eU,
  0x5b9c875d7f5f6c78U, 0x565a98764787676bU, 0x6f54914b66777e75U, 0x545c4d6c8d487243U,
  0x6c794b5057605f58U, 0x7c753c536d91666aU, 0x8b8955455f864e6dU, 0x7e758b856881597eU,
  0x8b735957983f5765U, 0x6475566969a47793U, 0x61696d6d596a5f6dU, 0x92605d7e64854456U,
  0x938075644768765fU, 0x71519a4749726642U, 0x4ac1638887819780U, 0x714e568f71528f79U,
  0x82455862646d609bU, 0x72768a623f5c7a6fU, 0x5f596460676e7272U, 0x5889718c79485451U,
  0x6e5f47744d644e71U, 0xc66454336a707789U, 0x7b61797e4d6a5850U, 0x7066724d9e89668cU,
  0x87856a6c468b6e51U, 0x5f66894e53488e2aU, 0x5f766d6e854d566aU, 0x5f309d5e71384a40U,
  0x753c446b665c677dU, 0x66567a67246e725dU, 0x6e5c86a077964f92U, 0x7c536f307483737dU,
  0x7c42766a70239138U, 0x7b5553527f727582U, 0x6f5873206b883d64U, 0x6078678187764968U,
  0x4e3961540e525d69U, 0x68963f535b615068U, 0x639e625f44837973U, 0x7b5b6076385c618bU,
  0x5b6d7f725a406038U, 0x9d50616877526235U, 0x50767d7f933e334bU, 0x6558946e994c335aU,
  0x4c994e6762587a53U, 0x494d6d6780536c23U, 0x676f506973725c6fU, 0x68644e66647f7c57U,
  0x556263626e8b4664U, 0x8c5d736d53795f72U, 0x46647a7643779181U, 0x798e49737a7c5963U,
  0x6657636772697a6bU, 0x7e7d87614a505d82U, 0x756356516b6e794eU, 0x8454935a94757170U,
  0x9a7364555b915b4fU, 0x5b868064686f887eU, 0x6886589c7f887b59U, 0x5b675b65594b6041U,
  0x84715f4b675f5c55U, 0x737d987585827476U, 0x5458913569715a2bU, 0x48587a4d5b7a805eU,
  0x66527a5c49387f95U, 0x84446c643d586d69U, 0x65925d5c75577f68U, 0x70656b77929b6178U,
  0x5e45757a5e6a674cU, 0x644485642b415575U, 0x636f39436b5e598cU, 0x6d938e7946978c71U,
  0x4b3254687a56748cU, 0x866b616d4d887b8fU, 0x4e7f5f418bb79261U, 0x437448715b687046U,
  0x4b4f5489885d7276U, 0x5c7b6f4e5b5d8486U, 0x806289693f4e422aU, 0x845b566276ce484eU,
  0x6f6c6f59636c7553U, 0x50836c916567556aU, 0x64627c695a554f6cU, 0x7e59534c7b424f6eU,
  0x5976865e5a7f8189U, 0x5f697d6972585d6fU, 0x735a7d80a956534bU, 0x92736f4a5e59ad6dU,
  0x6e4a6a7377a98f71U, 0x746f65587f5e6376U, 0x6c606c575e7d4a5bU, 0x744c745e68385861U,
  0x628fb491566f8170U, 0x6e7a9f987f77467bU, 0x74505a6d86845258U, 0x9f7875537a835151U,
  0x7b6f78638a767186U, 0x557d66645f7d686fU, 0x78737da07e7a8476U, 0x664fa64a59697c88U,
  0x8380886781413d90U, 0x576873b36074425eU, 0x578e807488684777U, 0x567e8a9a7a635468U,
  0x4e766b5b6a637a80U, 0x696a64796a33754eU, 0x497f75794e653ea2U, 0x737862697b758799U,
  0x376277767b808b64U, 0x655d4e6f6f73978cU, 0x8c466b5c65747767U, 0x96a86981ae62556dU,
  0x719d78776d965f65U, 0x607d749a756b8cacU, 0x6d7d4a7d6fa06164U, 0x83595c8b587e6051U,
  0x607388754f86a66aU, 0x5e5d477d70676632U, 0x3dac7d5a436d7078U, 0x7f5c8e54697b6765U,
  0x7858786173777b74U, 0x44786f878c6a6739U, 0x617b71556e512e6cU, 0x7da059746a523863U,
  0x4b65535854606165U, 0x7f7b7257928d6792U, 0x75648b4c6d433d3cU, 0x774c89546644505fU,
  0x809344af587a6264U, 0x9042405e6f796064U, 0x546d894475ab5768U, 0x3d3a606d9f3e7d90U,
  0x97554d5287624950U, 0x187c62547a846680U, 0x93704059634d5f82U, 0x55516d6381632a69U,
  0x6762717376704ea4U, 0xce754767652c7d6bU, 0x7e64835e7175535dU, 0x6a3b8a8d6c5a6c6bU,
  0x44766a603971924bU, 0x81853847896c4a78U, 0x568e3c56635d5690U, 0x7a536d738b585686U,
  0x546e606883a16859U, 0x876161486352807aU, 0x624d6d757a735f6eU, 0x785cb797887f567fU,
  0x855a608c5e545e5bU, 0x73704c708a52623dU, 0x72575d4d775f876fU, 0x71a57d7d74524263U,
  0xb04e54667f5f6471U, 0x387f6d7c5a61738aU, 0x7a2e584e4f708763U, 0x4f88837860b37079U,
  0x5b74674f6cc77270U, 0x8a5f696c5f61615fU, 0x8274676a6162535fU, 0x6f6faf5e61674f68U,
  0x5470636b6c656664U, 0x6c28696b66675a88U, 0x816a6666476f6b76U, 0x7b7d806d7e706f73U,
  0x795d6f636e72669fU, 0x685679715a636f79U, 0x717c9f6d706b791bU, 0x806f7c69716e596fU,
  0x644d408c66726754U, 0x5a5349653d6d6755U, 0x68629c596869666cU, 0x567e61467465675eU,
  0x60395a64535e633dU, 0x5a4c6e5341698360U, 0x52563a5a698c5a83U, 0x67767c70486f3781U,
  0x5c57566c6f546876U, 0x5a4c725c7481625eU, 0x5e4c69814f884259U, 0x5d696f63673a657cU,
  0x736f697c68826555U, 0x936d52485f4d7a5dU, 0x917d476944446267U, 0x715265866759935aU,
  0x7090666255728274U, 0x6c5c4981547e4e6bU, 0x6b596b5a3d635671U, 0x647085624c8b4b72U,
  0x957f797480777b8aU, 0x5a786368389d664dU, 0x807499478c7e784dU, 0x62816a6f6d744e5aU,
  0x5aa1607675a17b92U, 0x2a7a717c6a665a71U, 0x65257a4e6a96689aU, 0x6d559045317b4963U,
  0x371b4c805c6c5f6cU, 0x265d80575f61747aU, 0x62606d50892bc36bU, 0x318b78888d659867U,
  0x7856535d63656369U, 0x7d7f656077926683U, 0x547c47882b92597fU, 0x5c62c382767a685aU,
  0x557f6a91557e7e3eU, 0x91655d5e7569714cU, 0x656663556d457b78U, 0x6f7d8e50764f7860U,
  0x84835f657c6e3171U, 0x72654c67564c716bU, 0x7968557e8ca5894eU, 0x6e67786f5f4c8f7dU,
  0x6f749f53676f868fU, 0x7872514169507c58U, 0x515a74a051325d7eU, 0x55259a6752533e84U,
  0x45738b926760605fU, 0x746370606f58665cU, 0x596b87656d3e3c6dU, 0x843c6e7b6c59608bU,
  0x784d885c69597071U, 0x5f7267744b584774U, 0xa076995180397d50U, 0x92626b8749608893U,
  0x5a82684d4d714b5fU, 0x456f4a887f4f6261U, 0x733493a0554c899bU, 0x827d8087604aa68aU,
  0x8c6b468b59416154U, 0x3e3256556083687cU, 0x82a474345fb8696aU, 0x6f4c4d5a4b7a5756U,
  0x8a8f575b80744c54U, 0x8d674774915b6849U, 0x734a622062698489U, 0x846a5c7a79556670U,
  0x29666277507c9068U, 0x7975786d82546581U, 0x5148928f80653964U, 0xb062565477b4516fU,
  0x6490585d708d5b4bU, 0x74a0848889ac6960U, 0x703b7d827811a66cU, 0xb85c6d4e7d7f8d7fU,
  0x70795c607e589a66U, 0x6d766f5c52787c77U, 0x588c95897c83864fU, 0xaf6059858930609fU,
  0x6f42576d686b7a43U, 0x13654e34585d6a89U, 0x8b68553d5c4c9e5fU, 0x667d5f6677683387U,
  0x736f525c78708239U, 0x4b7836732e6161a8U, 0x5e915170595d6e8fU, 0x75755f418166677dU,
  0x6a71687973626c72U, 0x626557554f855f6dU, 0x6972691e5883622cU, 0x5f809e6989666261U,
  0x7fa74b6b81564c5dU, 0x6746517a8e3c6e4fU, 0x60765b78802e316aU, 0x72869b6172619340U,
  0x8154837086564e6eU, 0x55727285606d655dU, 0x4f6b78466f9a825aU, 0x51857a5f5079515cU,
  0xad5872512d744681U, 0x734a6882554b5e72U, 0x631b825c886c5f81U, 0x5a57786e3c645c4eU,
  0x627653886c6d6644U, 0x71602a7b7b5d8386U, 0x6e83646c6a867d87U, 0x8b59738342905d82U,
  0x3174817d75646b3eU, 0x7276628d8f447270U, 0x81a86e7573647684U, 0x3c473f5f575a5f5fU,
  0x6b686457436d5170U, 0x9a642b5c60594936U, 0x52834f6d675d876cU, 0x4dc9a958a6805e7fU,
  0x5c4c6c6c6b776165U, 0x663e6f6d5878ae6bU, 0x6e848e6fb25f693dU, 0x764a6e6c77456381U,
  0x737787746d533135U, 0x4f5c559d94865467U, 0x586f885267856451U, 0x6c50566c927b6076U,
  0x7d76676250ac756eU, 0x887a776cb17a9449U, 0xa97e5460b3674a80U, 0x6e6c7a7b45826c53U,
  0x49304751406d4336U, 0x347a5e6e68748184U, 0x738a635447707675U, 0x5d4f825c7985955eU,
  0x77745b8a8f845f72U, 0x787e556e6f817967U, 0x4d935c5754769653U, 0x65768e7e4e34554dU,
  0x6f8168797e685e5bU, 0x68525f4b4d7c977fU, 0x7956682271717984U, 0x68527d6d5165787dU,
  0x747d46636a7f8f6fU, 0x576a796a457f829bU, 0x657062498367866cU, 0x6c696269646e4352U,
  0x68646a7e69714b83U, 0x4f69665a897d7466U, 0x7487676374645479U, 0x656d647469529178U,
  0x4c6c92694e647e65U, 0x7f5c7a6a4f85866fU, 0x5c60906f97448150U, 0x6554825040627a5aU,
  0x94834e7c6b3d7484U, 0x584c4d99706d6262U, 0x786854ba8b6b865bU, 0x658f895d735f5267U,
  0x73a58a65539e8475U, 0x5c626f8d94514a69U, 0x696e539b524cae89U, 0x5b4b665d71a53f81U,
  0x47745457643b595bU, 0x74657a686154839cU, 0x575c918e48555892U, 0x497069735e367449U,
  0x4683533f595b7556U, 0x683c77647d676452U, 0x74556e446f834f62U, 0x43407855805f846aU,
  0x455a768875846b60U, 0x6d35697d6c626666U, 0x57429e8868b35647U, 0x6289c7908f7b776fU,
  0x6f61446e526e4d4cU, 0x3b6c74a37b355662U, 0x64763b599e4dc778U, 0x718847747a89607dU,
  0x7f76776c42526881U, 0x92736443734a5861U, 0x346f5a62537b484dU, 0x59604e796a607853U,
  0x4545607178885888U, 0xff986f557575529dU, 0x584a5f496b688579U, 0x664b726e5380525fU,
  0x698e907659486e66U, 0x21565460455c38a0U, 0x8b6571744f6c7848U, 0x7a616b624e775597U,
  0x7d5a676e706d4160U, 0x5d79717881757166U, 0x5e65ac64636a6a59U, 0x6f755e5f48644362U,
  0x894d893663983e70U, 0x695f6e5e355b8479U, 0x6342a46c7476635aU, 0x5f5b90486d4f7f59U,
  0x45836249577b5d6cU, 0x5f6b3d615a5f7363U, 0x5799bc446a6d7677U, 0x82474c5f5c6e7b73U,
  0x665a7c503f98643fU, 0x575b856b6277726dU, 0x5c7a68826773506bU, 0x5c5b465a64787a4bU,
  0x724f714871796256U, 0x7880406a7f556843U, 0x706958678d8a9559U, 0x8f8273586c895378U,
  0x8c8164635d676f7eU, 0x44614b6566766babU, 0x40635a61566f3b60U, 0x466e84646f5c756aU,
  0x6c6d995a91566752U, 0x7e7867776c888c69U, 0x6538725588a37c53U, 0x5a52754b9f69965dU,
  0x5f78728541325880U, 0x4448876050748e7dU, 0x86689c6a63496d89U, 0x6a5e5f7263631f6bU,
  0x96c15a9335908253U, 0x4e3a944f9b6b804eU, 0x6e6b528164817376U, 0x8a4256705d518b80U,
  0x7e7976717e7b5e9fU, 0x736a8148683b3131U, 0x6c4e73748565868eU, 0x77686a5a8d89644aU,
  0x5458915283455779U, 0xf60704e7a668176U, 0x48585a4357685869U, 0x7656447f556a5d64U,
  0x9776767445595760U, 0x32a2685b5062bb45U, 0x566b8068ee747053U, 0x7468705958595c6eU,
  0x605f695a6755603fU, 0x5978657482656f6fU, 0x6e735953646e6b7bU, 0x745e5155526a445dU,
  0x76596ea4ac883a68U, 0x6c6061555e5c846dU, 0x724e4e5b697a6c53U, 0x6e668d807755766eU,
  0xa247405240558086U, 0x805c406e4f7d5776U, 0x55617a847a7da37fU, 0x4e4f61565c836f53U,
  0x374e98855b50c88bU, 0x2d4a545532404c42U, 0x50776b5961756648U, 0x7a8f8238a970936aU,
  0x646f9f8569716360U, 0x725b974c4b689347U, 0x897b4d3b735c845bU, 0x6c50e15264957770U,
  0x825f7b815674809dU, 0x5f869250585f7d5eU, 0x4e1a428c89bcaf4bU, 0x525e466672745a7dU,
  0x803b7f6275726c82U, 0x5e825256525c7573U, 0x663d69ad5f6d6976U, 0x8a935e636e524d37U,
  0x6868705f60388d3dU, 0x50735c6f49585e67U, 0x6c6a784b475f6e81U, 0x64835750764b8b7cU,
  0x8d82716d886e536aU, 0x8096a36378838493U, 0x8f616b57775d3d5bU, 0x592a445d806c3f57U,
  0x848e66786b687b88U, 0x3b745f716e5f6e43U, 0x5c58586351648874U, 0x6d7d76637a5e9f77U,
  0x7973615287547a6eU, 0x42744f7f925f82a6U, 0x6266807073703fa1U, 0x7f554c633b9b933bU,
  0x70588a8c74536798U, 0x849b537094874b54U, 0x6092784f418b916fU, 0x6c5c88647063624aU,
  0x785da55c9180515bU, 0x715f576b5c614b59U, 0x679d93665028374fU, 0x345d60798b462273U,
  0x5f7d635777807676U, 0x76646d736282a765U, 0x8662925a7d437d61U, 0x4a637b5e375b3d78U,
  0xae806b5c834b8e7aU, 0x58935f517f98313fU, 0x3e3b25834d598339U, 0x63897a87517e6a84U,
  0x674b7e28a353757eU, 0x7e56527b25704d57U, 0x647c806545737194U, 0x524b856446827b60U,
  0x53c54c6176366e47U, 0x9b5670659e5d5251U, 0x4b856343395c666bU, 0x4a6842736d3f5da5U,
  0xb7746781804d5643U, 0x41645172306b9f7dU, 0x506f634f6175a57aU, 0x6f65d16592559341U,
  0x7f4982617344766fU, 0x808484775d685b94U, 0x5576ac8f82364c73U, 0x444b5d474e55706cU,
  0x52a2807b4367557fU, 0x6f4b563f59636452U, 0x5a54528b7a618440U, 0x5157ba8f4c736259U,
  0x37744f7848546c6bU, 0xa260624952816b84U, 0x4d565a686b65615aU, 0x665b5b5d8f56667cU,
  0x6b5052747c3e6c71U, 0x9571647c55758788U, 0x6c6960633b5f7572U, 0x7e6d5b68715c5486U,
  0x64517d707d855291U, 0x77658c634169479bU, 0x4f5b3a6874507983U, 0x776bc95d74876455U,
  0x677741788c7d66b3U, 0x771d3665624f7e7aU, 0x835c99877c305b58U, 0x6197365f6074625fU,
  0x6060465c45557353U, 0x8b4d5d544f5f2a6eU, 0x615a2452355f5ab1U, 0x60435f73613663a0U,
  0x80417f83517f5a4dU, 0x3f528c8e516b4c65U, 0x8b845b707391708bU, 0x7a5385c057578962U,
  0x702470a09f832b77U, 0x839d9a752d4c6e71U, 0x608952618d755857U, 0x665c76887d5d6958U,
  0x856370623f736b70U, 0x506e8a706d937b68U, 0x857e9e8183894d8dU, 0x4a54778454417f5aU,
  0x6da8714f6a725c9dU, 0x806e3d51596d9769U, 0x63517f767b538275U, 0x825f7872604f8577U,
  0x5886758a98895f7eU, 0x8c6a815a655d6156U, 0x656c856437447273U, 0x88275b6e7542818aU,
  0x6c69615a88666d67U, 0x836e5c896a6d688aU, 0x5d54704598526a6cU, 0x53664a6c73488b80U,
  0x6d867d88614f7057U, 0x5d666f7b7a82565cU, 0x6352875e7aa6816eU, 0x6477a16a3f617465U,
  0x61947256796b8356U, 0x576057467967756aU, 0x8966617745545a47U, 0x6b76435c49756873U,
  0x6063536e68546667U, 0x8d6c6a765a497151U, 0x876a675c7f4b6e5bU, 0x5d56714962646074U,
  0xab885e835e746346U, 0x5275635f6d776c85U, 0x403d7163614a7342U, 0x698e7f8463667b5fU,
  0xa565a75760658b7eU, 0x89715c86605e797fU, 0x6f6b948d5a66aa5dU, 0x887f5d5d96906e9dU,
  0x6c78447757678176U, 0x6b716a5570854854U, 0x5d5f6f534c886d7aU, 0x947a6c5f5a725f85U,
  0x6261856f74714f4fU, 0x4c537e5035787d1eU, 0xb979925f7e726760U, 0x6188766a69c2704cU,
  0x96774360794b6885U, 0x6d70658d68745d6aU, 0x6759936362405a77U, 0x61a45065825e8941U,
  0x57956e8f2f589467U, 0x65667a5477a8534cU, 0x4b9a8e58565c7b6fU, 0x5f7f53916c786671U,
  0x96677c604a56505dU, 0x9b9479917e9b5d5bU, 0x806f7159537a5e4dU, 0x667a3e668a525769U,
  0x8c5163766b797b5fU, 0x856b7a62643c8849U, 0x41825656816f914dU, 0x7a5a534c5e767a5bU,
  0x4c746a9660717d61U, 0x5a7b2c5962635070U, 0x6c75507852295551U, 0x655f966b7550519cU,
  0x4c82614a5d5f476dU, 0x76445b3e578a735eU, 0x6473818365493b5eU, 0x506b314e53a67072U,
  0x79b53d4780537695U, 0x5b6c4e7d5270714fU, 0x4d7b4348684f8b6cU, 0x423f465b5a4c804bU,
  0x807e7374765a6d6fU, 0x5b785d9981378658U, 0x60284b7b6c3c4276U, 0xbc5e439c7237b241U,
  0x4960736bbf5c5c75U, 0x735484408276516cU, 0x5e8d72374a567278U, 0x73437488895b745aU,
  0x6957606d86237d57U, 0x4459446a9d25817eU, 0x8aaa7e666c496354U, 0x6e455e4d7b86965cU,
  0x908a436f655c7a69U, 0x85877ba8736d5a82U, 0x5c6465b0577b8269U, 0x919856a274bb4550U,
  0x615772705f537d71U, 0x676d6a6b526a6583U, 0x9120719e94459a60U, 0x4572b96d858045a5U,
  0x425f767e798b7761U, 0x718e4178a35d7436U, 0x6f92406d63895e55U, 0x504f7a8281754b70U,
  0x997e444e40354887U, 0x5c6a46605c707183U, 0x6b79816f767e674dU, 0x47678a75656d676fU,
